{
  "version": "1.0",
  "truncation": null,
  "padding": null,
  "added_tokens": [
    {
      "id": 0,
      "content": "<unk>",
      "single_word": false,
      "lstrip": false,
      "rstrip": false,
      "normalized": false,
      "special": true
    },
    {
      "id": 1,
      "content": "<s>",
      "single_word": false,
      "lstrip": false,
      "rstrip": false,
      "normalized": false,
      "special": true
    },
    {
      "id": 2,
      "content": "</s>",
      "single_word": false,
      "lstrip": false,
      "rstrip": false,
      "normalized": false,
      "special": true
    }
  ],
  "normalizer": null,
  "pre_tokenizer": {
    "type": "ByteLevel",
    "add_prefix_space": false,
    "trim_offsets": true,
    "use_regex": true
  },
  "post_processor": null,
  "decoder": {
    "type": "ByteLevel",
    "add_prefix_space": true,
    "trim_offsets": true,
    "use_regex": true
  },
  "model": {
    "type": "BPE",
    "dropout": null,
    "unk_token": null,
    "continuing_subword_prefix": null,
    "end_of_word_suffix": null,
    "fuse_unk": false,
    "byte_fallback": false,
    "ignore_merges": false,
    "vocab": {
      "<unk>": 0,
      "<s>": 1,
      "</s>": 2,
      "!": 3,
      "\"": 4,
      "#": 5,
      "$": 6,
      "%": 7,
      "&": 8,
      "'": 9,
      "(": 10,
      ")": 11,
      "*": 12,
      "+": 13,
      ",": 14,
      "-": 15,
      ".": 16,
      "/": 17,
      "0": 18,
      "1": 19,
      "2": 20,
      "3": 21,
      "4": 22,
      "5": 23,
      "6": 24,
      "7": 25,
      "8": 26,
      "9": 27,
      ":": 28,
      ";": 29,
      "<": 30,
      "=": 31,
      ">": 32,
      "?": 33,
      "@": 34,
      "A": 35,
      "B": 36,
      "C": 37,
      "D": 38,
      "E": 39,
      "F": 40,
      "G": 41,
      "H": 42,
      "I": 43,
      "J": 44,
      "K": 45,
      "L": 46,
      "M": 47,
      "N": 48,
      "O": 49,
      "P": 50,
      "Q": 51,
      "R": 52,
      "S": 53,
      "T": 54,
      "U": 55,
      "V": 56,
      "W": 57,
      "X": 58,
      "Y": 59,
      "Z": 60,
      "[": 61,
      "\\": 62,
      "]": 63,
      "^": 64,
      "_": 65,
      "`": 66,
      "a": 67,
      "b": 68,
      "c": 69,
      "d": 70,
      "e": 71,
      "f": 72,
      "g": 73,
      "h": 74,
      "i": 75,
      "j": 76,
      "k": 77,
      "l": 78,
      "m": 79,
      "n": 80,
      "o": 81,
      "p": 82,
      "q": 83,
      "r": 84,
      "s": 85,
      "t": 86,
      "u": 87,
      "v": 88,
      "w": 89,
      "x": 90,
      "y": 91,
      "z": 92,
      "{": 93,
      "|": 94,
      "}": 95,
      "~": 96,
      "¡": 97,
      "¢": 98,
      "£": 99,
      "¤": 100,
      "¥": 101,
      "¦": 102,
      "§": 103,
      "¨": 104,
      "©": 105,
      "ª": 106,
      "«": 107,
      "¬": 108,
      "®": 109,
      "¯": 110,
      "°": 111,
      "±": 112,
      "²": 113,
      "³": 114,
      "´": 115,
      "µ": 116,
      "¶": 117,
      "·": 118,
      "¸": 119,
      "¹": 120,
      "º": 121,
      "»": 122,
      "¼": 123,
      "½": 124,
      "¾": 125,
      "¿": 126,
      "Â": 127,
      "Ã": 128,
      "Ä": 129,
      "Å": 130,
      "Æ": 131,
      "Ç": 132,
      "È": 133,
      "É": 134,
      "Ê": 135,
      "Ë": 136,
      "Ì": 137,
      "Í": 138,
      "Î": 139,
      "Ï": 140,
      "Ð": 141,
      "Ñ": 142,
      "Ò": 143,
      "Ó": 144,
      "Ô": 145,
      "Õ": 146,
      "Ö": 147,
      "×": 148,
      "Ø": 149,
      "Ù": 150,
      "Ú": 151,
      "Û": 152,
      "Ü": 153,
      "Ý": 154,
      "Þ": 155,
      "ß": 156,
      "à": 157,
      "á": 158,
      "â": 159,
      "ã": 160,
      "ä": 161,
      "å": 162,
      "æ": 163,
      "ç": 164,
      "è": 165,
      "é": 166,
      "ê": 167,
      "ë": 168,
      "ì": 169,
      "í": 170,
      "î": 171,
      "ï": 172,
      "ð": 173,
      "ñ": 174,
      "ó": 175,
      "ô": 176,
      "Ā": 177,
      "ā": 178,
      "Ă": 179,
      "ă": 180,
      "Ą": 181,
      "ą": 182,
      "Ć": 183,
      "ć": 184,
      "Ĉ": 185,
      "ĉ": 186,
      "Ċ": 187,
      "ċ": 188,
      "Č": 189,
      "č": 190,
      "Ď": 191,
      "ď": 192,
      "Đ": 193,
      "đ": 194,
      "Ē": 195,
      "ē": 196,
      "Ĕ": 197,
      "ĕ": 198,
      "Ė": 199,
      "ė": 200,
      "Ę": 201,
      "ę": 202,
      "Ě": 203,
      "ě": 204,
      "Ĝ": 205,
      "ĝ": 206,
      "Ğ": 207,
      "ğ": 208,
      "Ġ": 209,
      "ġ": 210,
      "Ģ": 211,
      "ģ": 212,
      "Ĥ": 213,
      "ĥ": 214,
      "Ħ": 215,
      "ħ": 216,
      "Ĩ": 217,
      "ĩ": 218,
      "Ī": 219,
      "ī": 220,
      "Ĭ": 221,
      "ĭ": 222,
      "Į": 223,
      "į": 224,
      "İ": 225,
      "ı": 226,
      "Ĳ": 227,
      "ĳ": 228,
      "Ĵ": 229,
      "ĵ": 230,
      "Ķ": 231,
      "ķ": 232,
      "ĸ": 233,
      "Ĺ": 234,
      "ĺ": 235,
      "Ļ": 236,
      "ļ": 237,
      "Ľ": 238,
      "ľ": 239,
      "Ŀ": 240,
      "ŀ": 241,
      "Ł": 242,
      "ł": 243,
      "Ń": 244,
      "ĠĠ": 245,
      "Ġt": 246,
      "Ġa": 247,
      "in": 248,
      "he": 249,
      "re": 250,
      "on": 251,
      "ĠĠĠĠ": 252,
      "Ġthe": 253,
      "er": 254,
      "at": 255,
      "Ġs": 256,
      "en": 257,
      "Ġo": 258,
      "Ġc": 259,
      "Ġw": 260,
      "is": 261,
      "it": 262,
      "or": 263,
      "es": 264,
      "ed": 265,
      "al": 266,
      "an": 267,
      "Ġp": 268,
      "Ġf": 269,
      "Ġb": 270,
      "Ġan": 271,
      "ing": 272,
      "Ġin": 273,
      "Ġof": 274,
      "ar": 275,
      "ion": 276,
      "ou": 277,
      "Ġm": 278,
      "Ġd": 279,
      "ic": 280,
      "--": 281,
      "Ġto": 282,
      "le": 283,
      "as": 284,
      "ĠĠĠĠĠĠĠĠ": 285,
      "Ġand": 286,
      "ro": 287,
      "Ġth": 288,
      "ent": 289,
      "Ġh": 290,
      "ct": 291,
      "Ġre": 292,
      "et": 293,
      "Ġn": 294,
      "el": 295,
      "st": 296,
      "om": 297,
      "il": 298,
      "Ġe": 299,
      "Ġl": 300,
      "id": 301,
      "ot": 302,
      "im": 303,
      "ig": 304,
      "ve": 305,
      "Ġis": 306,
      "ut": 307,
      "Ġg": 308,
      "Ġ(": 309,
      "ĠT": 310,
      "----": 311,
      "am": 312,
      "ol": 313,
      "ĠI": 314,
      "ation": 315,
      "se": 316,
      "ce": 317,
      "ly": 318,
      "âĢ": 319,
      "Ġfor": 320,
      "ur": 321,
      "ĠĠĠ": 322,
      "Ġbe": 323,
      "ow": 324,
      "ĠS": 325,
      "Ġthat": 326,
      "Ġu": 327,
      "ad": 328,
      "Ġon": 329,
      "ĠA": 330,
      "ĠC": 331,
      "Ġst": 332,
      "ch": 333,
      "ver": 334,
      "ay": 335,
      "ul": 336,
      "ith": 337,
      "if": 338,
      "Ġ1": 339,
      "Ġcon": 340,
      "Ġwith": 341,
      "ra": 342,
      "ĠĠĠĠĠĠĠĠĠĠĠĠĠĠĠĠ": 343,
      "Ġy": 344,
      "Ġas": 345,
      "ir": 346,
      "od": 347,
      "ter": 348,
      "00": 349,
      "Ġpro": 350,
      "Ġ\"": 351,
      "ate": 352,
      "Ġ$": 353,
      "Ġit": 354,
      "her": 355,
      "um": 356,
      "ab": 357,
      "pe": 358,
      "ĠM": 359,
      "Ġal": 360,
      "Ġwe": 361,
      "ri": 362,
      "ge": 363,
      "nd": 364,
      "Ġv": 365,
      "==": 366,
      "Ġwh": 367,
      "Ġ2": 368,
      "ĠP": 369,
      "Ġde": 370,
      "res": 371,
      "pp": 372,
      "qu": 373,
      "ac": 374,
      "Ġyou": 375,
      "ment": 376,
      "est": 377,
      "Ġex": 378,
      "os": 379,
      "ist": 380,
      "Ġwas": 381,
      "ĠThe": 382,
      "ĠB": 383,
      "us": 384,
      "Ġ\\": 385,
      "Ġhe": 386,
      "--------": 387,
      "ant": 388,
      "Ġor": 389,
      "Ġcom": 390,
      "em": 391,
      "ht": 392,
      "Ġare": 393,
      "th": 394,
      "**": 395,
      "oc": 396,
      "Ġat": 397,
      "ers": 398,
      "Ġsu": 399,
      "iv": 400,
      "Ġ=": 401,
      "un": 402,
      "ity": 403,
      "ess": 404,
      "ain": 405,
      "Ġr": 406,
      "op": 407,
      "ĠH": 408,
      "Ġby": 409,
      "Ġse": 410,
      "ĠF": 411,
      "ld": 412,
      "ĠD": 413,
      "ill": 414,
      "ction": 415,
      "ore": 416,
      "rom": 417,
      "and": 418,
      "nt": 419,
      "ĠW": 420,
      "ke": 421,
      "Ġnot": 422,
      "Ġ-": 423,
      "end": 424,
      "Ġha": 425,
      "ive": 426,
      "ĠR": 427,
      "ĠL": 428,
      "ort": 429,
      "Ġne": 430,
      "pt": 431,
      "Ġthis": 432,
      "ĊĠĠĠĠ": 433,
      "ĠN": 434,
      "âĢĻ": 435,
      "Ġfrom": 436,
      "ight": 437,
      "art": 438,
      "ud": 439,
      "red": 440,
      "ĊĠĠĠ": 441,
      "pl": 442,
      "ell": 443,
      "Ġsh": 444,
      "ial": 445,
      "ies": 446,
      "te": 447,
      "Ġch": 448,
      "ĠG": 449,
      "Ġhave": 450,
      "ated": 451,
      "fe": 452,
      "ĠE": 453,
      "Ġ*": 454,
      "ure": 455,
      "ine": 456,
      "'s": 457,
      "ould": 458,
      "our": 459,
      "all": 460,
      "{\\": 461,
      "Ġle": 462,
      "Ġ0": 463,
      "ag": 464,
      "per": 465,
      "og": 466,
      "ust": 467,
      "age": 468,
      "ical": 469,
      "Ġcan": 470,
      "ame": 471,
      ").": 472,
      "ue": 473,
      "iz": 474,
      "ĠO": 475,
      "ich": 476,
      "rou": 477,
      "cl": 478,
      "Ġ3": 479,
      "ib": 480,
      "ĊĠĠĠĠĠĠĠĠ": 481,
      "out": 482,
      "ard": 483,
      "Ġus": 484,
      "ome": 485,
      "able": 486,
      "ie": 487,
      "ase": 488,
      "Ġres": 489,
      "Ġcl": 490,
      "Ġwhe": 491,
      ");": 492,
      "Ġab": 493,
      "ath": 494,
      "Ġj": 495,
      "ack": 496,
      "====": 497,
      "ult": 498,
      "ass": 499,
      "act": 500,
      "ost": 501,
      "Ġ{": 502,
      "Ġk": 503,
      "ans": 504,
      "01": 505,
      "Ġpl": 506,
      "Ġcomp": 507,
      "ide": 508,
      "ther": 509,
      ".\"": 510,
      "Ġad": 511,
      "Ġme": 512,
      "ĊĠ": 513,
      "The": 514,
      "ast": 515,
      "=\"": 516,
      "Ġcont": 517,
      "Ġwere": 518,
      "orm": 519,
      "ĠâĢ": 520,
      "Ġim": 521,
      "Ġall": 522,
      "Ġtr": 523,
      "ub": 524,
      "ign": 525,
      "ĊĠĠĠĠĠĠĠ": 526,
      "ĠJ": 527,
      "..": 528,
      "ap": 529,
      "Ġdo": 530,
      "ĠU": 531,
      "ind": 532,
      "Ġ[": 533,
      "ition": 534,
      "ak": 535,
      "ip": 536,
      "Ġwhich": 537,
      "ĠĠĠĠĠĠĠĠĠĠĠĠĠĠĠĠĠĠĠĠĠĠĠĠĠĠĠĠĠĠĠĠ": 538,
      "ph": 539,
      "Ġhas": 540,
      "ice": 541,
      "Ġ+": 542,
      "cc": 543,
      "one": 544,
      "ary": 545,
      "ous": 546,
      "ĉĉ": 547,
      "//": 548,
      "Ġbut": 549,
      "ime": 550,
      "Ġint": 551,
      "ens": 552,
      "are": 553,
      "ĠIn": 554,
      "int": 555,
      "----------------": 556,
      "con": 557,
      "Ġwor": 558,
      "_{": 559,
      "du": 560,
      "Ġdis": 561,
      "ress": 562,
      "ong": 563,
      "ence": 564,
      "ations": 565,
      "Ġ4": 566,
      "ty": 567,
      "ff": 568,
      "Ġwill": 569,
      "ne": 570,
      "ile": 571,
      "ok": 572,
      "Ġgo": 573,
      "),": 574,
      "ru": 575,
      "Ġ<": 576,
      "Ġout": 577,
      "ep": 578,
      "ose": 579,
      "ance": 580,
      "}}": 581,
      "gh": 582,
      "Âł": 583,
      "av": 584,
      "Ġif": 585,
      "Ġper": 586,
      "ents": 587,
      "Ġen": 588,
      "au": 589,
      "ally": 590,
      "ber": 591,
      "Ġ5": 592,
      "ĠTh": 593,
      "Ġhis": 594,
      "ace": 595,
      "Ġone": 596,
      "so": 597,
      "Ġun": 598,
      "port": 599,
      "xt": 600,
      "ely": 601,
      "ia": 602,
      "ord": 603,
      "Ġthey": 604,
      "ory": 605,
      "ire": 606,
      "ear": 607,
      "ach": 608,
      "ect": 609,
      "ions": 610,
      "Ġapp": 611,
      "Ġev": 612,
      "Ġso": 613,
      "form": 614,
      "ry": 615,
      "Ġup": 616,
      "ang": 617,
      "Ġqu": 618,
      "ree": 619,
      "lic": 620,
      "Ġar": 621,
      "Ġtheir": 622,
      "âĢĿ": 623,
      "Ġmore": 624,
      "Ġpart": 625,
      "ail": 626,
      "ĠK": 627,
      "ite": 628,
      "ors": 629,
      "ll": 630,
      "Ġthere": 631,
      "ys": 632,
      "Ġag": 633,
      "Ġpre": 634,
      "ake": 635,
      "Ġother": 636,
      "Ġli": 637,
      "own": 638,
      "ĠĠĠĠĠĠĠ": 639,
      "very": 640,
      "Ġ}": 641,
      "ound": 642,
      "Ġyour": 643,
      "ft": 644,
      "Ġ$\\": 645,
      "vel": 646,
      "Ġhad": 647,
      "ount": 648,
      "fere": 649,
      "cre": 650,
      "urn": 651,
      "ĠSt": 652,
      "Ġsa": 653,
      "ata": 654,
      "Ġbeen": 655,
      "com": 656,
      "Ġsp": 657,
      "math": 658,
      "Ġman": 659,
      "ks": 660,
      "Ġalso": 661,
      "Ġwho": 662,
      "erv": 663,
      "Ġany": 664,
      "we": 665,
      "ates": 666,
      "Ġwould": 667,
      "de": 668,
      "ĠV": 669,
      "Ġno": 670,
      "[@": 671,
      "Ġabout": 672,
      "nder": 673,
      "low": 674,
      "ject": 675,
      "ĊĊ": 676,
      "Ġwhen": 677,
      "eth": 678,
      "Ġmy": 679,
      "Ġ&": 680,
      "Ġ'": 681,
      "ific": 682,
      "ook": 683,
      "\\]": 684,
      "Ġob": 685,
      "Ġtime": 686,
      "ple": 687,
      "Ġthan": 688,
      "ater": 689,
      "'t": 690,
      "ict": 691,
      "Ġass": 692,
      "wo": 693,
      "erm": 694,
      "Ġ6": 695,
      "Ġover": 696,
      "ref": 697,
      "10": 698,
      "Ġits": 699,
      "}$": 700,
      "row": 701,
      "ring": 702,
      "Ġ19": 703,
      "Ġsome": 704,
      "Ġsc": 705,
      "ob": 706,
      "clud": 707,
      "ĠâĢľ": 708,
      "rib": 709,
      "ck": 710,
      "fter": 711,
      "ays": 712,
      "ces": 713,
      "</": 714,
      "Ġspe": 715,
      "get": 716,
      "Ġbet": 717,
      "Ġsy": 718,
      "In": 719,
      "lect": 720,
      "Ġnew": 721,
      "Ġgen": 722,
      "Ġdif": 723,
      "fect": 724,
      "ĊĠĠĠĠĠĠĠĠĠĠĠ": 725,
      "old": 726,
      "Ġam": 727,
      "irst": 728,
      "ove": 729,
      "^{": 730,
      "Ġte": 731,
      "ode": 732,
      "hat": 733,
      "ied": 734,
      "Ġinter": 735,
      "vers": 736,
      "Ġfe": 737,
      "ps": 738,
      "Ġsub": 739,
      "Ġget": 740,
      "ild": 741,
      "19": 742,
      "Ġdef": 743,
      "Ġacc": 744,
      "Ġher": 745,
      "Ġoff": 746,
      "Ġkn": 747,
      "reat": 748,
      "ĠY": 749,
      "ause": 750,
      "Ġcomm": 751,
      "Ġact": 752,
      "Ġinto": 753,
      "Ġour": 754,
      "ced": 755,
      "Ġunder": 756,
      "ov": 757,
      "Ġro": 758,
      "iss": 759,
      "Ġcons": 760,
      "ings": 761,
      "ink": 762,
      "Ġpe": 763,
      "##": 764,
      "ĠIt": 765,
      "Ġdes": 766,
      "Ġrel": 767,
      "Ġmay": 768,
      "ma": 769,
      "========": 770,
      "ual": 771,
      "Ġrec": 772,
      "12": 773,
      "ick": 774,
      "Ġonly": 775,
      "ative": 776,
      "Ġtwo": 777,
      "ari": 778,
      "pon": 779,
      "Ġsaid": 780,
      "Ġthem": 781,
      "Ġval": 782,
      "ert": 783,
      "iew": 784,
      "pect": 785,
      "Ġyear": 786,
      "Ġwork": 787,
      "Ġstud": 788,
      "Ġbec": 789,
      "Ġwhat": 790,
      "ular": 791,
      "Ġlike": 792,
      "Ġadd": 793,
      "Ġind": 794,
      "Ġ7": 795,
      "hed": 796,
      "Ġret": 797,
      "ark": 798,
      "Ġmod": 799,
      "igh": 800,
      "Ġreg": 801,
      "Ġpos": 802,
      "Ġtrans": 803,
      "ĠCh": 804,
      "pro": 805,
      "unction": 806,
      "Ġinv": 807,
      "elf": 808,
      "cess": 809,
      "oint": 810,
      "Ġem": 811,
      "Ġbl": 812,
      "Ġuse": 813,
      "ĠThis": 814,
      "ock": 815,
      "stem": 816,
      "Ġco": 817,
      "itt": 818,
      "ish": 819,
      "Ġfirst": 820,
      "Ġsuch": 821,
      "ased": 822,
      "ating": 823,
      "Ġjust": 824,
      "ex": 825,
      "Ġ201": 826,
      "ont": 827,
      "Ġpr": 828,
      "ef": 829,
      "Ġph": 830,
      "Ġ8": 831,
      "Ġpres": 832,
      "Ġform": 833,
      "Ġthese": 834,
      "ĠWe": 835,
      "ian": 836,
      "\",": 837,
      "ments": 838,
      "ade": 839,
      "Ġprov": 840,
      "ient": 841,
      "Ġdiffere": 842,
      "Ġwhere": 843,
      "ility": 844,
      "ĊĠĠĠĠĠ": 845,
      "11": 846,
      "Ġcol": 847,
      "}\\": 848,
      "Ġpat": 849,
      "ĠHe": 850,
      "Ġshe": 851,
      "Ġafter": 852,
      "Ġdet": 853,
      "Ġsign": 854,
      "rac": 855,
      "ize": 856,
      "Ġpol": 857,
      "Ċĉĉ": 858,
      "ident": 859,
      "aw": 860,
      "Ġhow": 861,
      "ec": 862,
      "Ġ10": 863,
      "ood": 864,
      "ween": 865,
      "oth": 866,
      "Ġneed": 867,
      "__": 868,
      "der": 869,
      "ss": 870,
      "ffect": 871,
      "olog": 872,
      "ople": 873,
      "the": 874,
      "Ġexp": 875,
      "gr": 876,
      "Ġset": 877,
      "type": 878,
      "ption": 879,
      "Ġthen": 880,
      "Ġcould": 881,
      "ublic": 882,
      "ution": 883,
      "ange": 884,
      "Ġclass": 885,
      "ĊĠĠĠĠĠĠĠĠĠĠĠĠĠĠĠ": 886,
      "St": 887,
      "](": 888,
      "Ġ9": 889,
      "()": 890,
      "Ġresult": 891,
      "Ġatt": 892,
      "Ġbetween": 893,
      "Ġcell": 894,
      "ough": 895,
      "Ġrem": 896,
      "fig": 897,
      "ise": 898,
      "000": 899,
      "right": 900,
      "ious": 901,
      "Ġ\\[": 902,
      "Ġsupp": 903,
      "les": 904,
      "ollow": 905,
      "20": 906,
      ".,": 907,
      "ix": 908,
      "eg": 909,
      "ble": 910,
      "ype": 911,
      "Ċĉ": 912,
      "Ġgrou": 913,
      "Ġ|": 914,
      "up": 915,
      "Ġinclud": 916,
      "Ġused": 917,
      "ible": 918,
      "ax": 919,
      "iel": 920,
      "ER": 921,
      "als": 922,
      "Ġdid": 923,
      "ourt": 924,
      "Ġdata": 925,
      "Ġnum": 926,
      "Ġshow": 927,
      "ues": 928,
      "ons": 929,
      "Ġknow": 930,
      "Ġfl": 931,
      "oy": 932,
      "){": 933,
      "cy": 934,
      "Ġfact": 935,
      "\">": 936,
      "Ġpeople": 937,
      "ract": 938,
      "tern": 939,
      "ull": 940,
      "Ġshould": 941,
      "ics": 942,
      "ox": 943,
      "rough": 944,
      "ning": 945,
      "Ġac": 946,
      "Ġcor": 947,
      "Ġsim": 948,
      "Ġhim": 949,
      "Ġsur": 950,
      "ms": 951,
      "Ġspec": 952,
      "its": 953,
      "hen": 954,
      "****": 955,
      "Ġfollow": 956,
      "Ġrequ": 957,
      "fore": 958,
      "Ġdist": 959,
      "Ġusing": 960,
      "ren": 961,
      "inal": 962,
      "ruct": 963,
      "Ġi": 964,
      "Ġsee": 965,
      "Ġback": 966,
      "Ġbecause": 967,
      "sp": 968,
      "Ġfunction": 969,
      "ined": 970,
      "Ġconst": 971,
      "ield": 972,
      "ful": 973,
      "Ġsystem": 974,
      "ities": 975,
      "Ġmost": 976,
      ")$": 977,
      "li": 978,
      "IN": 979,
      "ever": 980,
      "Ġinst": 981,
      "rit": 982,
      "15": 983,
      "--------------------------------": 984,
      "ĊĠĠĠĠĠĠĠĠĠĠĠĠĠĠĠĠ": 985,
      "ool": 986,
      "pos": 987,
      "13": 988,
      "put": 989,
      "Ġ.": 990,
      "ited": 991,
      "Ġend": 992,
      "Ġsm": 993,
      "sc": 994,
      "uring": 995,
      "ures": 996,
      "Ġwell": 997,
      "ins": 998,
      "16": 999,
      "\"}": 1000,
      "Ġreturn": 1001,
      "Ġthrough": 1002,
      "Ġprodu": 1003,
      "Ġtest": 1004,
      "Ġright": 1005,
      "Ġtra": 1006,
      "Ġgener": 1007,
      "Ġ[@": 1008,
      "(\\": 1009,
      "Ġbu": 1010,
      "]{": 1011,
      "ĠUn": 1012,
      "Ġagain": 1013,
      "Ġext": 1014,
      "14": 1015,
      "Ġchar": 1016,
      "Ġwant": 1017,
      "hes": 1018,
      "mer": 1019,
      "Ġhigh": 1020,
      "Th": 1021,
      "Ġdifferent": 1022,
      "Ġeach": 1023,
      "err": 1024,
      "ized": 1025,
      "ational": 1026,
      "to": 1027,
      "ĠĠĠĠĠ": 1028,
      "ower": 1029,
      "Ġcase": 1030,
      "->": 1031,
      "round": 1032,
      "cond": 1033,
      "Ġstate": 1034,
      "Ġdoes": 1035,
      "imes": 1036,
      "ator": 1037,
      "Ġent": 1038,
      "Ġeffect": 1039,
      "text": 1040,
      "ically": 1041,
      "wn": 1042,
      "io": 1043,
      "ric": 1044,
      "],": 1045,
      "25": 1046,
      "ew": 1047,
      "ON": 1048,
      "ĠSe": 1049,
      "uch": 1050,
      "other": 1051,
      "ta": 1052,
      "nce": 1053,
      "Ġeven": 1054,
      "riv": 1055,
      "ily": 1056,
      "Ġ200": 1057,
      "Ġmake": 1058,
      "ctions": 1059,
      "par": 1060,
      "cal": 1061,
      "ients": 1062,
      "set": 1063,
      "Ġmin": 1064,
      "ork": 1065,
      "let": 1066,
      "_{\\": 1067,
      "vent": 1068,
      "Ġ@": 1069,
      "rol": 1070,
      "Ġ:": 1071,
      "...": 1072,
      "Ġevery": 1073,
      "uc": 1074,
      "18": 1075,
      "))": 1076,
      "ethod": 1077,
      "Ġke": 1078,
      "Ġcur": 1079,
      "Ġra": 1080,
      "ute": 1081,
      "read": 1082,
      "Ġsame": 1083,
      "Ġcall": 1084,
      "ants": 1085,
      "frac": 1086,
      "ars": 1087,
      "Ġway": 1088,
      "Ġnow": 1089,
      "ger": 1090,
      "Ġanal": 1091,
      "Ġap": 1092,
      "cept": 1093,
      "Ġfind": 1094,
      "Ġdec": 1095,
      "ince": 1096,
      "val": 1097,
      "Ġdon": 1098,
      "\":": 1099,
      "Ġincre": 1100,
      "aint": 1101,
      "arch": 1102,
      "](#": 1103,
      "Ġpoint": 1104,
      "oci": 1105,
      "ĠĠĠĠĠĠĠĠĠĠĠĠĠĠĠĠĠĠĠĠĠĠĠĠĠĠĠĠĠĠĠĠĠĠĠĠĠĠĠĠĠĠĠĠĠĠĠĠĠĠĠĠĠĠĠĠĠĠĠĠĠĠĠĠ": 1106,
      "Ġlook": 1107,
      "oid": 1108,
      "17": 1109,
      "Ġthose": 1110,
      "str": 1111,
      "ward": 1112,
      "velop": 1113,
      "Ġinte": 1114,
      "Ġlong": 1115,
      "Ġyears": 1116,
      "Ġvery": 1117,
      "Ġ_": 1118,
      "Ġdi": 1119,
      "ug": 1120,
      "ason": 1121,
      "ym": 1122,
      "Ġpartic": 1123,
      "Ġloc": 1124,
      "pr": 1125,
      "ense": 1126,
      "Ġboth": 1127,
      "Ġvari": 1128,
      "Ġhere": 1129,
      "ases": 1130,
      "und": 1131,
      "Ġmon": 1132,
      "rm": 1133,
      "day": 1134,
      "ines": 1135,
      "cent": 1136,
      "rent": 1137,
      "irect": 1138,
      "AT": 1139,
      "rest": 1140,
      "Ġaut": 1141,
      "Ġmat": 1142,
      "ample": 1143,
      "Ġfound": 1144,
      "Ġbel": 1145,
      "Ġ/": 1146,
      "Ġbeing": 1147,
      "atic": 1148,
      "ting": 1149,
      "air": 1150,
      "yp": 1151,
      "Ġtri": 1152,
      "$\\": 1153,
      "Ġmed": 1154,
      "Ġexper": 1155,
      "led": 1156,
      "?\"": 1157,
      "Ġappro": 1158,
      "Ġpers": 1159,
      "Ġpar": 1160,
      "::": 1161,
      "ages": 1162,
      "Ġmany": 1163,
      "Ġplay": 1164,
      "Ġbefore": 1165,
      "It": 1166,
      "ife": 1167,
      "]{}": 1168,
      "32": 1169,
      "ng": 1170,
      "ices": 1171,
      "Ġ//": 1172,
      "ared": 1173,
      "alth": 1174,
      "Ġnumber": 1175,
      "Ġfil": 1176,
      "]\\]": 1177,
      "over": 1178,
      "Ġmem": 1179,
      "ĠCom": 1180,
      "âĢī": 1181,
      "Ġgr": 1182,
      "Ġprote": 1183,
      "tr": 1184,
      "Ġser": 1185,
      "Ġ**": 1186,
      "ature": 1187,
      "50": 1188,
      "30": 1189,
      "app": 1190,
      "Ġx": 1191,
      "cer": 1192,
      "Ġel": 1193,
      "Ġcar": 1194,
      "Ġpublic": 1195,
      "ES": 1196,
      "ified": 1197,
      "AR": 1198,
      "aking": 1199,
      "sh": 1200,
      "Ġop": 1201,
      "of": 1202,
      "min": 1203,
      "Ġrespon": 1204,
      "}{": 1205,
      "ateg": 1206,
      "left": 1207,
      "ody": 1208,
      "ner": 1209,
      "Ġgu": 1210,
      "Ġthink": 1211,
      "Ġhel": 1212,
      "formation": 1213,
      "Ġche": 1214,
      "We": 1215,
      "ĠĠĠĠĠĠ": 1216,
      "Ġins": 1217,
      "eng": 1218,
      "Ġstr": 1219,
      "ression": 1220,
      "Ġgood": 1221,
      "ale": 1222,
      "ĊĊĠĠĠ": 1223,
      "Ġ12": 1224,
      "Ġprocess": 1225,
      "ave": 1226,
      "yl": 1227,
      "ash": 1228,
      "Ġdown": 1229,
      "Ġinf": 1230,
      "Ġrep": 1231,
      "upp": 1232,
      "Ġmodel": 1233,
      "ank": 1234,
      "Ġmade": 1235,
      "Ġvalue": 1236,
      "Ġreport": 1237,
      "ĠFor": 1238,
      "ĠâĢĵ": 1239,
      "ively": 1240,
      "Ġcourt": 1241,
      "ism": 1242,
      "ness": 1243,
      "ually": 1244,
      "line": 1245,
      "ven": 1246,
      "Ġ\\[[@": 1247,
      "Ġwhile": 1248,
      "Ġlevel": 1249,
      "ired": 1250,
      "view": 1251,
      "Ġgiv": 1252,
      "Ġstudy": 1253,
      "://": 1254,
      "Ġsol": 1255,
      "mathb": 1256,
      "NA": 1257,
      "gg": 1258,
      "Ġpresent": 1259,
      "ved": 1260,
      "Ġdevelop": 1261,
      "24": 1262,
      "',": 1263,
      "201": 1264,
      "mon": 1265,
      "Ġstart": 1266,
      "ument": 1267,
      "way": 1268,
      "ĠLet": 1269,
      "ained": 1270,
      "Ġlar": 1271,
      "Ġsupport": 1272,
      "OR": 1273,
      ",\\": 1274,
      "ght": 1275,
      "dition": 1276,
      "Ġref": 1277,
      "Ġcount": 1278,
      "---": 1279,
      "Ġdisc": 1280,
      "Ġsecond": 1281,
      "CR": 1282,
      "Ġmuch": 1283,
      "ret": 1284,
      "$,": 1285,
      "Ġequ": 1286,
      "cul": 1287,
      "ĠÂ": 1288,
      "Ġown": 1289,
      "ams": 1290,
      ".âĢĿ": 1291,
      "erg": 1292,
      "ision": 1293,
      "Ġhand": 1294,
      "ole": 1295,
      "Ġserv": 1296,
      "0000": 1297,
      "Ġterm": 1298,
      "igned": 1299,
      "Ġthree": 1300,
      "man": 1301,
      "(\"": 1302,
      "ĠRe": 1303,
      "ization": 1304,
      "ĠPro": 1305,
      "Ġread": 1306,
      "Ġnon": 1307,
      "ray": 1308,
      "Ġpatients": 1309,
      "Ġest": 1310,
      "ider": 1311,
      "lement": 1312,
      "ĠAl": 1313,
      "ĠIf": 1314,
      "$.": 1315,
      "gan": 1316,
      "ality": 1317,
      "ffic": 1318,
      "Ġdep": 1319,
      "oad": 1320,
      "use": 1321,
      "Ġet": 1322,
      "Ġmethod": 1323,
      "Ġposs": 1324,
      "uss": 1325,
      "Ġwithout": 1326,
      "Ġant": 1327,
      "Ġduring": 1328,
      "Ġorder": 1329,
      "amp": 1330,
      "Ġcells": 1331,
      "abel": 1332,
      "oun": 1333,
      "ency": 1334,
      "ential": 1335,
      "cri": 1336,
      ",\"": 1337,
      "What": 1338,
      "Ġname": 1339,
      "ton": 1340,
      "any": 1341,
      "ĠAs": 1342,
      "med": 1343,
      "80": 1344,
      "eta": 1345,
      "arly": 1346,
      "Ġ20": 1347,
      "ource": 1348,
      "Ġactiv": 1349,
      "ĠAnd": 1350,
      "Ġhelp": 1351,
      "Ġcre": 1352,
      "not": 1353,
      "Ġline": 1354,
      "ided": 1355,
      "EN": 1356,
      "Re": 1357,
      "ists": 1358,
      "idence": 1359,
      "ify": 1360,
      "Ġgroup": 1361,
      "amb": 1362,
      "Ġproper": 1363,
      "Ġperform": 1364,
      "name": 1365,
      "ST": 1366,
      "tt": 1367,
      "22": 1368,
      "cial": 1369,
      "IT": 1370,
      "Ġimport": 1371,
      "ĠHow": 1372,
      "ah": 1373,
      "ather": 1374,
      "Ġlast": 1375,
      "be": 1376,
      "Ġcle": 1377,
      "ability": 1378,
      "40": 1379,
      "Ġproble": 1380,
      "Ġlead": 1381,
      "alk": 1382,
      "ters": 1383,
      "ouse": 1384,
      "Ġav": 1385,
      "Ġsay": 1386,
      "Ġrun": 1387,
      "raph": 1388,
      "ving": 1389,
      "Ġz": 1390,
      "Ġagainst": 1391,
      "ĠAn": 1392,
      "ĠBut": 1393,
      "99": 1394,
      "ww": 1395,
      "Ġsmall": 1396,
      "ane": 1397,
      "ron": 1398,
      "Ġiss": 1399,
      "Ġgl": 1400,
      "ulation": 1401,
      "Ġoper": 1402,
      "ames": 1403,
      "Ġsignific": 1404,
      "(-": 1405,
      "Ġconf": 1406,
      "Ġlet": 1407,
      "Ġmust": 1408,
      "23": 1409,
      "ross": 1410,
      "Ġtake": 1411,
      "hip": 1412,
      "\\[": 1413,
      "Ġtype": 1414,
      "Ġstill": 1415,
      "Ġcontrol": 1416,
      "aim": 1417,
      "acter": 1418,
      "Ġchild": 1419,
      "Ġperson": 1420,
      "ann": 1421,
      "Ġlaw": 1422,
      "ots": 1423,
      "itive": 1424,
      "ml": 1425,
      "Con": 1426,
      "Ġappe": 1427,
      "Ġpur": 1428,
      "Ġmet": 1429,
      "Ġsom": 1430,
      "ention": 1431,
      "Ġexpl": 1432,
      "ĠYou": 1433,
      "Let": 1434,
      "oh": 1435,
      "irc": 1436,
      "Ġ15": 1437,
      "pha": 1438,
      "He": 1439,
      "Ġinformation": 1440,
      "rt": 1441,
      "Ġ,": 1442,
      "();": 1443,
      "Ġdirect": 1444,
      "Ġday": 1445,
      "ysis": 1446,
      "âĢľ": 1447,
      "serv": 1448,
      "ek": 1449,
      "ier": 1450,
      "Ġcent": 1451,
      "ds": 1452,
      "33": 1453,
      "AL": 1454,
      "Ġinc": 1455,
      "Fig": 1456,
      "ÃĲ": 1457,
      "Ġfin": 1458,
      "AN": 1459,
      "urther": 1460,
      "Ġed": 1461,
      "Ġquest": 1462,
      "atch": 1463,
      "chn": 1464,
      "less": 1465,
      "me": 1466,
      "yn": 1467,
      "ination": 1468,
      "64": 1469,
      "].": 1470,
      "ĠQ": 1471,
      "ology": 1472,
      "This": 1473,
      "Ex": 1474,
      "Ġpost": 1475,
      "Ġfam": 1476,
      "Ġtreat": 1477,
      "60": 1478,
      "mathcal": 1479,
      "ides": 1480,
      "Ġresults": 1481,
      "Ġident": 1482,
      "Ġstand": 1483,
      "vious": 1484,
      "Ġmeas": 1485,
      "ĊĠĠ": 1486,
      ")\\": 1487,
      "200": 1488,
      "ote": 1489,
      "Ġsignificant": 1490,
      "ets": 1491,
      "Ġelect": 1492,
      "Ġca": 1493,
      "oot": 1494,
      "Pro": 1495,
      "ience": 1496,
      "ission": 1497,
      "da": 1498,
      "Ġfollowing": 1499,
      "for": 1500,
      "htt": 1501,
      "Ġerr": 1502,
      "agn": 1503,
      "Ġbre": 1504,
      "Ġmult": 1505,
      "ium": 1506,
      "work": 1507,
      "eral": 1508,
      "ital": 1509,
      "Ġ18": 1510,
      "duct": 1511,
      "ration": 1512,
      "Ġdeterm": 1513,
      "ately": 1514,
      "land": 1515,
      "ral": 1516,
      "Ġgoing": 1517,
      "Ġallow": 1518,
      "ording": 1519,
      "aj": 1520,
      "meric": 1521,
      "ĠNew": 1522,
      "27": 1523,
      "Ġcontin": 1524,
      "ĠTr": 1525,
      "ains": 1526,
      "Ġlim": 1527,
      "Ġcondition": 1528,
      "ior": 1529,
      "ished": 1530,
      "ploy": 1531,
      "================": 1532,
      "}(": 1533,
      "aterial": 1534,
      "ured": 1535,
      "Ġcare": 1536,
      "Ġfr": 1537,
      "Ġwithin": 1538,
      "ĠDe": 1539,
      "Ġ*/": 1540,
      "CT": 1541,
      "iff": 1542,
      "ural": 1543,
      "ule": 1544,
      "son": 1545,
      "Ġsince": 1546,
      "Ġreal": 1547,
      "Ġlife": 1548,
      "âĢĵ": 1549,
      "Ġaround": 1550,
      "Ġrece": 1551,
      "bl": 1552,
      "Ġstat": 1553,
      "ional": 1554,
      "Ġwr": 1555,
      "'m": 1556,
      "Ġworld": 1557,
      "Ġhum": 1558,
      "def": 1559,
      "ivers": 1560,
      "Ġredu": 1561,
      "Ġcurrent": 1562,
      "Ġdev": 1563,
      "az": 1564,
      "Ġinterest": 1565,
      "ackage": 1566,
      "Ã©": 1567,
      "35": 1568,
      "28": 1569,
      "gen": 1570,
      "ĠX": 1571,
      "alpha": 1572,
      "Ġaddition": 1573,
      "Ġhealth": 1574,
      "que": 1575,
      "Ġstruct": 1576,
      "ently": 1577,
      "Ġgover": 1578,
      "ID": 1579,
      "SE": 1580,
      "ived": 1581,
      "chool": 1582,
      "Ġanother": 1583,
      "akes": 1584,
      "Ġpass": 1585,
      "ond": 1586,
      "Ġmark": 1587,
      ",âĢĿ": 1588,
      "34": 1589,
      "self": 1590,
      "ĠWh": 1591,
      "Ġinvest": 1592,
      "ott": 1593,
      "resent": 1594,
      "Ġ14": 1595,
      "Ġopen": 1596,
      "Ġtry": 1597,
      "crib": 1598,
      "arent": 1599,
      "lex": 1600,
      "Ġcr": 1601,
      "Ġ</": 1602,
      "Ġarg": 1603,
      "âĢĶ": 1604,
      "br": 1605,
      "ts": 1606,
      "Ġself": 1607,
      "Ġfield": 1608,
      "Ġgreat": 1609,
      "You": 1610,
      "amet": 1611,
      "Ġdel": 1612,
      "Ġcommun": 1613,
      "bers": 1614,
      "Ġlist": 1615,
      "Ġexample": 1616,
      "####": 1617,
      "ives": 1618,
      "arg": 1619,
      "Ġimp": 1620,
      "ves": 1621,
      "Ġpower": 1622,
      "ither": 1623,
      "gram": 1624,
      "rel": 1625,
      "dd": 1626,
      "Ġincluding": 1627,
      "]\\].": 1628,
      "37": 1629,
      "********": 1630,
      "ĊĊĠ": 1631,
      "ways": 1632,
      "Ġocc": 1633,
      "LE": 1634,
      "ĠZ": 1635,
      "face": 1636,
      "Ġtoo": 1637,
      "Ġmean": 1638,
      "sec": 1639,
      "ething": 1640,
      "Ġbeh": 1641,
      "Ġclaim": 1642,
      "Ġmight": 1643,
      "Ch": 1644,
      "Ġ#": 1645,
      "Ġsl": 1646,
      "Ġgiven": 1647,
      "ury": 1648,
      "Ġhead": 1649,
      "Ġrespect": 1650,
      "here": 1651,
      "Ġtem": 1652,
      "arn": 1653,
      "05": 1654,
      "ribut": 1655,
      "Ġbas": 1656,
      "26": 1657,
      "ĠCon": 1658,
      "Ġart": 1659,
      "ably": 1660,
      "arget": 1661,
      "Ġreally": 1662,
      "^{\\": 1663,
      "Ġchang": 1664,
      "Ġgovern": 1665,
      "Ġassoci": 1666,
      "29": 1667,
      "Ġplace": 1668,
      "ope": 1669,
      "Ġ16": 1670,
      "ump": 1671,
      "lection": 1672,
      "ĠCl": 1673,
      "iness": 1674,
      "ĠIs": 1675,
      "ĠHowever": 1676,
      "hor": 1677,
      "Ġless": 1678,
      "ining": 1679,
      "arm": 1680,
      "Ġpot": 1681,
      "ĠSh": 1682,
      "ĠAmeric": 1683,
      "stand": 1684,
      "Ġ{#": 1685,
      "ĠThey": 1686,
      "lease": 1687,
      "Ġadv": 1688,
      "ought": 1689,
      "Ġhig": 1690,
      "RE": 1691,
      "ength": 1692,
      "Ġ$$\\": 1693,
      "Ġfile": 1694,
      "yt": 1695,
      "Ġlow": 1696,
      "Ġhapp": 1697,
      "ends": 1698,
      "38": 1699,
      "ference": 1700,
      "fer": 1701,
      "roll": 1702,
      "Ġhome": 1703,
      "Ġbased": 1704,
      "Ġvis": 1705,
      "Ġmonth": 1706,
      "Ġ--": 1707,
      "ety": 1708,
      "Ġapplic": 1709,
      "Ġtop": 1710,
      "ery": 1711,
      "ãģ": 1712,
      "36": 1713,
      "ategory": 1714,
      "icro": 1715,
      "aining": 1716,
      "Ġcap": 1717,
      "ivid": 1718,
      "ault": 1719,
      "'re": 1720,
      "Ġwom": 1721,
      "alse": 1722,
      "rap": 1723,
      "reg": 1724,
      "vert": 1725,
      "Ġve": 1726,
      "thing": 1727,
      "Ġfew": 1728,
      "Ġobject": 1729,
      "Ġgrow": 1730,
      "ocument": 1731,
      "Ġprob": 1732,
      "att": 1733,
      "Ġbus": 1734,
      "Ġcal": 1735,
      "elta": 1736,
      "ĠĠĠĠĠĠĠĠĠĠĠĠĠĠĠĠĠĠĠĠĠĠĠĠ": 1737,
      "21": 1738,
      "Ġbest": 1739,
      "Ġanalysis": 1740,
      "('": 1741,
      "Ġindic": 1742,
      "ĠNo": 1743,
      "Ġsing": 1744,
      "Ġpop": 1745,
      "ittle": 1746,
      "osed": 1747,
      "Ġobserv": 1748,
      "Ġmot": 1749,
      "Ġnext": 1750,
      "âĪ": 1751,
      "ĠâĢĶ": 1752,
      "IC": 1753,
      "leg": 1754,
      "by": 1755,
      "Ġimportant": 1756,
      "Ġtechn": 1757,
      "75": 1758,
      "ised": 1759,
      "Cl": 1760,
      "AS": 1761,
      "mb": 1762,
      "Ġevidence": 1763,
      "Ġsomething": 1764,
      "els": 1765,
      "oss": 1766,
      "Ġpath": 1767,
      "ambda": 1768,
      "Ġleft": 1769,
      "Ġobt": 1770,
      "ext": 1771,
      "45": 1772,
      "Ġfour": 1773,
      "Ġwhether": 1774,
      "Ġopt": 1775,
      "$$": 1776,
      "Ġcommon": 1777,
      "requ": 1778,
      "bs": 1779,
      "Ġproduct": 1780,
      "Ġchange": 1781,
      "che": 1782,
      "90": 1783,
      "cur": 1784,
      "abl": 1785,
      "Ġbo": 1786,
      "Ġput": 1787,
      "Ġbelie": 1788,
      "inf": 1789,
      "ertain": 1790,
      "Ġleg": 1791,
      "plic": 1792,
      "Ġsugg": 1793,
      "cing": 1794,
      "Ġsuggest": 1795,
      "ik": 1796,
      "95": 1797,
      "ware": 1798,
      "ĠLe": 1799,
      "ĠPh": 1800,
      "Ġview": 1801,
      "Ġseem": 1802,
      "ification": 1803,
      "Ġfail": 1804,
      "Ġexpect": 1805,
      "Ġparticular": 1806,
      "Ġprof": 1807,
      "used": 1808,
      "label": 1809,
      "Com": 1810,
      "ĠThere": 1811,
      "Ġ30": 1812,
      "ĠInd": 1813,
      "AC": 1814,
      "por": 1815,
      "hib": 1816,
      "amma": 1817,
      ")/": 1818,
      "Ġnever": 1819,
      "add": 1820,
      "ccess": 1821,
      "action": 1822,
      "mun": 1823,
      "Ġlight": 1824,
      "70": 1825,
      "col": 1826,
      "opy": 1827,
      "ĠWhat": 1828,
      "cont": 1829,
      "version": 1830,
      "},": 1831,
      "Ġunt": 1832,
      "Ġinvol": 1833,
      "div": 1834,
      "rop": 1835,
      "Ġdescrib": 1836,
      "Ġconne": 1837,
      "Ġbetter": 1838,
      "Ġask": 1839,
      "ples": 1840,
      "Ġturn": 1841,
      "mu": 1842,
      "Ġsit": 1843,
      "Ġabove": 1844,
      "To": 1845,
      "new": 1846,
      "lu": 1847,
      "ĠEx": 1848,
      "Ġlarge": 1849,
      "As": 1850,
      "Ġwater": 1851,
      "ĠSo": 1852,
      "ended": 1853,
      "ene": 1854,
      "mathbb": 1855,
      "Ġ11": 1856,
      "part": 1857,
      "ending": 1858,
      "ered": 1859,
      "Ġproblem": 1860,
      "Ġbi": 1861,
      "Ġsk": 1862,
      "Ġtrue": 1863,
      "Ġreason": 1864,
      "ilar": 1865,
      "co": 1866,
      "ird": 1867,
      "Ġrese": 1868,
      "egin": 1869,
      "Ġ{\\": 1870,
      "ormal": 1871,
      "Ġeas": 1872,
      "IS": 1873,
      "orn": 1874,
      "ser": 1875,
      "Name": 1876,
      "igma": 1877,
      "Ġconsider": 1878,
      "pi": 1879,
      "ĠPl": 1880,
      "ats": 1881,
      "Ġtreatment": 1882,
      "Ġleast": 1883,
      "Ġlittle": 1884,
      "ED": 1885,
      "Ġsize": 1886,
      "Ġpossible": 1887,
      "ailable": 1888,
      "Ġgot": 1889,
      "package": 1890,
      "ĠShe": 1891,
      "ho": 1892,
      "}_": 1893,
      "Ġlocal": 1894,
      "48": 1895,
      "ask": 1896,
      "Ġposition": 1897,
      "Ġcome": 1898,
      "Ġthings": 1899,
      "}^{": 1900,
      "Ġtot": 1901,
      "ĠAll": 1902,
      "!\"": 1903,
      "=\\": 1904,
      "Ġris": 1905,
      "ĊĠĠĠĠĠĠĠĠĠ": 1906,
      "Ġdue": 1907,
      "Ġopp": 1908,
      "Ġbuild": 1909,
      "Ġpay": 1910,
      "Ġmov": 1911,
      "Ġimpro": 1912,
      "Ġcharacter": 1913,
      "____": 1914,
      "ividual": 1915,
      "Ġtyp": 1916,
      "rain": 1917,
      "Ġide": 1918,
      "Ġrepresent": 1919,
      "ĠUS": 1920,
      "back": 1921,
      "Ġ==": 1922,
      "illion": 1923,
      "Ġinit": 1924,
      "39": 1925,
      "epend": 1926,
      "ina": 1927,
      "Ġfree": 1928,
      "HE": 1929,
      "Ġhy": 1930,
      "ush": 1931,
      "Ġrest": 1932,
      "data": 1933,
      "iron": 1934,
      "play": 1935,
      "):": 1936,
      "icle": 1937,
      "Ġ17": 1938,
      "aring": 1939,
      "Ġelse": 1940,
      "Ġold": 1941,
      "ajor": 1942,
      "ances": 1943,
      "Ġbig": 1944,
      "nal": 1945,
      "Ġquestion": 1946,
      "idth": 1947,
      "Ġdefend": 1948,
      "Ġsever": 1949,
      "čĊ": 1950,
      "iod": 1951,
      "Ġhaving": 1952,
      "Ġdays": 1953,
      "ĠTo": 1954,
      "Ġshown": 1955,
      "Ġoffic": 1956,
      "Ġgive": 1957,
      "Ġhuman": 1958,
      "Ġrecord": 1959,
      "ological": 1960,
      "Ġfurther": 1961,
      "sum": 1962,
      "imal": 1963,
      "Ġbr": 1964,
      "Ġorgan": 1965,
      "begin": 1966,
      "aps": 1967,
      "Ġbro": 1968,
      "Ġgame": 1969,
      "Ġes": 1970,
      "];": 1971,
      "Ġtrial": 1972,
      "Ġgre": 1973,
      "}_{": 1974,
      "ĠOn": 1975,
      "Ġprom": 1976,
      "org": 1977,
      "Ġ25": 1978,
      "mod": 1979,
      "Ġgovernment": 1980,
      "Ġnet": 1981,
      "Ġprogram": 1982,
      "Se": 1983,
      "ergy": 1984,
      "Ġhist": 1985,
      "Ġweek": 1986,
      "ĠApp": 1987,
      "Ġsum": 1988,
      "If": 1989,
      "âĪĴ": 1990,
      "Ġemploy": 1991,
      "Ġcode": 1992,
      "atory": 1993,
      "ctor": 1994,
      "ĠState": 1995,
      "ĊĠĠĠĠĠĠĠĠĠĠĠĠĠĠĠĠĠĠĠ": 1996,
      "Ġprevious": 1997,
      "ream": 1998,
      "44": 1999,
      "etic": 2000,
      "bar": 2001,
      "Ġkeep": 2002,
      "65": 2003,
      "ns": 2004,
      "ead": 2005,
      "aut": 2006,
      "Ġjud": 2007,
      "Ġexpression": 2008,
      "Ġhard": 2009,
      "Ġindividual": 2010,
      "Ġfeel": 2011,
      "Id": 2012,
      "Ġden": 2013,
      "Ġprovide": 2014,
      "Ġpa": 2015,
      "Ġcost": 2016,
      "Ġalways": 2017,
      "88": 2018,
      "itor": 2019,
      "Type": 2020,
      "Ġmain": 2021,
      "AP": 2022,
      "sel": 2023,
      "inc": 2024,
      "Ġ)": 2025,
      "Ġpotential": 2026,
      "Ġeither": 2027,
      "ern": 2028,
      "Ġsw": 2029,
      "Ġknown": 2030,
      "Ġcalled": 2031,
      "But": 2032,
      "RO": 2033,
      "Ġpriv": 2034,
      "uro": 2035,
      "Ġrad": 2036,
      "angle": 2037,
      "Ġdiv": 2038,
      "Ġ!": 2039,
      "ĠAd": 2040,
      "Ġsimilar": 2041,
      "Ġschool": 2042,
      "Ġpred": 2043,
      "Ġcho": 2044,
      "ours": 2045,
      "iple": 2046,
      "usion": 2047,
      "ĠThese": 2048,
      "Ġuntil": 2049,
      "ĠCourt": 2050,
      "Ġavailable": 2051,
      "Ġfamily": 2052,
      "ĠUnited": 2053,
      "phi": 2054,
      "Ġcomb": 2055,
      "though": 2056,
      "Ġwon": 2057,
      "Category": 2058,
      "Ġgeneral": 2059,
      "uck": 2060,
      "lev": 2061,
      "ception": 2062,
      "itle": 2063,
      "opt": 2064,
      "ocial": 2065,
      "Ġside": 2066,
      "clude": 2067,
      "raw": 2068,
      "Ġsingle": 2069,
      "Ġvol": 2070,
      "Ġfac": 2071,
      "uff": 2072,
      "import": 2073,
      "ental": 2074,
      "Ġben": 2075,
      "LL": 2076,
      "aligned": 2077,
      "Ġteam": 2078,
      "Ġdise": 2079,
      "class": 2080,
      "ĊĊĠĠĠĠĠĠĠ": 2081,
      "And": 2082,
      "Ġmeans": 2083,
      "}$$": 2084,
      "Ġaction": 2085,
      "For": 2086,
      "ready": 2087,
      "oney": 2088,
      "Ġlik": 2089,
      "Ġspecific": 2090,
      "yle": 2091,
      "Ġproject": 2092,
      "Ġ13": 2093,
      "Ġphys": 2094,
      "66": 2095,
      "ĠRes": 2096,
      "var": 2097,
      "Ġvalues": 2098,
      "Ġplan": 2099,
      "oor": 2100,
      "Ġcases": 2101,
      "Ġable": 2102,
      "Ġ%": 2103,
      "ten": 2104,
      "ison": 2105,
      "Ġchildren": 2106,
      "mit": 2107,
      "Ġsequ": 2108,
      "Ġmajor": 2109,
      "Ġtimes": 2110,
      "itted": 2111,
      "98": 2112,
      "ĠFr": 2113,
      "Ġseveral": 2114,
      "Ġmaterial": 2115,
      "Ġcirc": 2116,
      "pone": 2117,
      "ourse": 2118,
      "ries": 2119,
      "roup": 2120,
      "Ġorig": 2121,
      "Ġhold": 2122,
      "ĠCol": 2123,
      "oper": 2124,
      "Ġunderstand": 2125,
      "String": 2126,
      "iversity": 2127,
      "osp": 2128,
      "An": 2129,
      "cript": 2130,
      "Ġsuper": 2131,
      "Ġder": 2132,
      "Ġhigher": 2133,
      "respon": 2134,
      "Ġtre": 2135,
      "usepackage": 2136,
      "Ġkey": 2137,
      "ember": 2138,
      "ĠĠĠĠĠĠĠĠĠĠĠ": 2139,
      "ĠThat": 2140,
      "Ġ100": 2141,
      "key": 2142,
      "lambda": 2143,
      "ressed": 2144,
      "77": 2145,
      "Ġarea": 2146,
      "100": 2147,
      "essage": 2148,
      "Ġstudies": 2149,
      "Ġabs": 2150,
      "pped": 2151,
      "ĠSc": 2152,
      "indow": 2153,
      "Ġ>": 2154,
      "Ġtarget": 2155,
      "'ve": 2156,
      "rict": 2157,
      "Ġbody": 2158,
      "gment": 2159,
      "ney": 2160,
      "cle": 2161,
      "ystem": 2162,
      "http": 2163,
      "this": 2164,
      "iol": 2165,
      "Ġmove": 2166,
      "^{-": 2167,
      "iting": 2168,
      "ored": 2169,
      "94": 2170,
      "Ġ24": 2171,
      "ET": 2172,
      "><": 2173,
      "ION": 2174,
      "Ġfull": 2175,
      "lected": 2176,
      "Res": 2177,
      "span": 2178,
      "Ġrate": 2179,
      "Ġperiod": 2180,
      "Ġwhy": 2181,
      "sub": 2182,
      "96": 2183,
      "Ġerror": 2184,
      "idd": 2185,
      "_\\": 2186,
      "conom": 2187,
      "Tr": 2188,
      "})": 2189,
      "Ġtotal": 2190,
      "Ċĉĉĉ": 2191,
      "ĠÃ": 2192,
      "mm": 2193,
      "Ġstandard": 2194,
      "ences": 2195,
      "mission": 2196,
      "Ġenergy": 2197,
      "hy": 2198,
      "Ċĉĉĉĉ": 2199,
      "04": 2200,
      "Ġbusiness": 2201,
      "}^": 2202,
      "97": 2203,
      "ume": 2204,
      "Ġneg": 2205,
      "fficient": 2206,
      "Ġaccess": 2207,
      "eps": 2208,
      "Ġexist": 2209,
      "ustom": 2210,
      "Ġlater": 2211,
      "rior": 2212,
      "utes": 2213,
      "rug": 2214,
      "Ġlot": 2215,
      "ering": 2216,
      "ids": 2217,
      "ling": 2218,
      "ĠStates": 2219,
      "Ġspace": 2220,
      "Ġfar": 2221,
      "Ġreview": 2222,
      "Ġla": 2223,
      "pm": 2224,
      "iction": 2225,
      "{{\\": 2226,
      "empt": 2227,
      "Ġsure": 2228,
      "string": 2229,
      "Ġdiff": 2230,
      "Ġprim": 2231,
      "ler": 2232,
      "ift": 2233,
      "time": 2234,
      "Ġ`": 2235,
      "ables": 2236,
      "AD": 2237,
      "Ġalready": 2238,
      "aintiff": 2239,
      "Ġfinal": 2240,
      "AM": 2241,
      "Ġdidn": 2242,
      "ged": 2243,
      "ister": 2244,
      "ibility": 2245,
      "Ġinvestig": 2246,
      "Ġshort": 2247,
      "ĠAr": 2248,
      "55": 2249,
      "Ġdiscuss": 2250,
      "Ġcrit": 2251,
      "ued": 2252,
      "sw": 2253,
      "Ġreported": 2254,
      "ĠSp": 2255,
      "Ġamong": 2256,
      "verage": 2257,
      "go": 2258,
      "Ġassociated": 2259,
      "ayer": 2260,
      "qrt": 2261,
      "cription": 2262,
      "Ġmass": 2263,
      "Ġlevels": 2264,
      "urs": 2265,
      "outh": 2266,
      "....": 2267,
      "test": 2268,
      "alf": 2269,
      "OU": 2270,
      "Ġstrong": 2271,
      "ĠAt": 2272,
      "ape": 2273,
      "Ġthought": 2274,
      "olution": 2275,
      "aken": 2276,
      "Ġpract": 2277,
      "ĠCal": 2278,
      "Ġresponse": 2279,
      "Ġcertain": 2280,
      "iving": 2281,
      "Ġsent": 2282,
      "ĠWhen": 2283,
      "FF": 2284,
      "Ġmen": 2285,
      "Ġalong": 2286,
      "chan": 2287,
      "viron": 2288,
      "place": 2289,
      "nces": 2290,
      "ators": 2291,
      "Ġinj": 2292,
      "cd": 2293,
      "Ġparamet": 2294,
      "ivity": 2295,
      "side": 2296,
      "////": 2297,
      "Ġamount": 2298,
      "ava": 2299,
      "31": 2300,
      "Ġsubject": 2301,
      "asing": 2302,
      "Ġrequired": 2303,
      "Ġdone": 2304,
      "Ġwomen": 2305,
      "uppose": 2306,
      "'ll": 2307,
      "mathbf": 2308,
      "Ġaway": 2309,
      "List": 2310,
      "Ġsays": 2311,
      "Ġexperim": 2312,
      "../": 2313,
      "table": 2314,
      "Ġpercent": 2315,
      "Ġfri": 2316,
      "Ġissue": 2317,
      "Ġ${\\": 2318,
      "Ġpress": 2319,
      "rist": 2320,
      "return": 2321,
      "Ġdom": 2322,
      "ĠBl": 2323,
      "sequ": 2324,
      "rect": 2325,
      "ograph": 2326,
      "ey": 2327,
      "Val": 2328,
      "85": 2329,
      "Ġid": 2330,
      "Ġdesign": 2331,
      "II": 2332,
      "td": 2333,
      "Cont": 2334,
      "Ġoften": 2335,
      "icy": 2336,
      "Ġlog": 2337,
      "Ġrequire": 2338,
      "Ġterms": 2339,
      "uation": 2340,
      "Ġactivity": 2341,
      "ilon": 2342,
      "ogn": 2343,
      "IG": 2344,
      "ension": 2345,
      "Ġ=>": 2346,
      "rem": 2347,
      "ands": 2348,
      "67": 2349,
      "amples": 2350,
      "Ġ50": 2351,
      "Ġdevelopment": 2352,
      "ribution": 2353,
      "Ġtell": 2354,
      "ique": 2355,
      "osis": 2356,
      "Ġgroups": 2357,
      "iver": 2358,
      "Ġfore": 2359,
      "Ġhowever": 2360,
      "Ġport": 2361,
      "Ġdr": 2362,
      "aster": 2363,
      "orth": 2364,
      "Ġage": 2365,
      "Ġwar": 2366,
      "Ġthing": 2367,
      "\")": 2368,
      "ĠCo": 2369,
      "Ġevent": 2370,
      "Ġsens": 2371,
      "Ġsuccess": 2372,
      "Ġpolit": 2373,
      "lete": 2374,
      "Ġcheck": 2375,
      "eb": 2376,
      "-\\": 2377,
      "ga": 2378,
      "Ġvir": 2379,
      "stit": 2380,
      "ising": 2381,
      "Ġsal": 2382,
      "></": 2383,
      "beta": 2384,
      "Ġkind": 2385,
      "Ġenough": 2386,
      "Ġcourse": 2387,
      "Ġenc": 2388,
      "Ġaccount": 2389,
      "Ġsat": 2390,
      "acy": 2391,
      "ched": 2392,
      "arrow": 2393,
      "Ġtold": 2394,
      "Ġlower": 2395,
      "fl": 2396,
      "Ġrisk": 2397,
      "ĠĠĠĠĠĠĠĠĠ": 2398,
      "Ġthough": 2399,
      "Is": 2400,
      "ources": 2401,
      "ley": 2402,
      "68": 2403,
      "ohn": 2404,
      "Ġcompared": 2405,
      "Ġmicro": 2406,
      "Ġeng": 2407,
      "Ġcoun": 2408,
      "Ġstring": 2409,
      "ories": 2410,
      "Ġfund": 2411,
      "Ġrelations": 2412,
      "How": 2413,
      "----------------------------------------------------------------": 2414,
      "Ġaff": 2415,
      "Ġcou": 2416,
      "DE": 2417,
      "date": 2418,
      "ING": 2419,
      "OT": 2420,
      "Ġbase": 2421,
      "Ġprovided": 2422,
      "sigma": 2423,
      "Ġmaking": 2424,
      "Ġaccording": 2425,
      "aces": 2426,
      "omet": 2427,
      "ores": 2428,
      "Col": 2429,
      "Ġinclude": 2430,
      "angu": 2431,
      "Al": 2432,
      "Ġworking": 2433,
      "Ġvoid": 2434,
      "Ġnecess": 2435,
      "Ġupon": 2436,
      "ĠOr": 2437,
      "gin": 2438,
      "Ġconditions": 2439,
      "pecial": 2440,
      "âĢ¦": 2441,
      "order": 2442,
      "Ġ([": 2443,
      "Ġagree": 2444,
      "Ġrole": 2445,
      "Ġtext": 2446,
      "Ġbit": 2447,
      "na": 2448,
      "Ġfood": 2449,
      "ding": 2450,
      "AG": 2451,
      "ival": 2452,
      "Ġresearch": 2453,
      "ges": 2454,
      "Ġauthor": 2455,
      "Ġsection": 2456,
      "cret": 2457,
      "Ġuser": 2458,
      "]).": 2459,
      "Ġincrease": 2460,
      "Ġrange": 2461,
      "uture": 2462,
      "Ġeffects": 2463,
      "47": 2464,
      "Ġseen": 2465,
      "ubl": 2466,
      "Ġchanges": 2467,
      "vironment": 2468,
      "inter": 2469,
      "code": 2470,
      "ung": 2471,
      "html": 2472,
      "most": 2473,
      "Ġdoesn": 2474,
      "ache": 2475,
      "Ġdou": 2476,
      "Ġrespons": 2477,
      "ibr": 2478,
      "ession": 2479,
      "ties": 2480,
      "atures": 2481,
      "ij": 2482,
      "Ġ([@": 2483,
      "02": 2484,
      "Ġtax": 2485,
      "Ġtoget": 2486,
      "Ġdem": 2487,
      "Ġtogether": 2488,
      "iation": 2489,
      "Ġbenef": 2490,
      "Ġmil": 2491,
      "ground": 2492,
      "Ġsource": 2493,
      "ee": 2494,
      "\\_": 2495,
      "Ġdetail": 2496,
      "Ġcompon": 2497,
      "ĠÎ": 2498,
      "Ġprotein": 2499,
      "Ġmoney": 2500,
      "Ġproperty": 2501,
      "Ġann": 2502,
      "ĠâĢĺ": 2503,
      "Ġcomput": 2504,
      "Ġflu": 2505,
      "Ġjob": 2506,
      "Ġpast": 2507,
      "medi": 2508,
      "Ġcomplet": 2509,
      "uit": 2510,
      "Ġincreased": 2511,
      "Ġbecome": 2512,
      "ĠRep": 2513,
      "Ġtalk": 2514,
      "Ġimage": 2515,
      "rodu": 2516,
      "Ġfactors": 2517,
      "Ġmor": 2518,
      "artment": 2519,
      "Ar": 2520,
      "CC": 2521,
      "Ġphot": 2522,
      "www": 2523,
      "head": 2524,
      "Ġservice": 2525,
      "Ġmechan": 2526,
      "ians": 2527,
      "69": 2528,
      "Ġcannot": 2529,
      "Ġobserved": 2530,
      "Ġdri": 2531,
      "08": 2532,
      "On": 2533,
      "Ġcomplex": 2534,
      "Ġrequest": 2535,
      "Ġsepar": 2536,
      "Ġconduct": 2537,
      "Ġcountry": 2538,
      "Ġlove": 2539,
      "istic": 2540,
      "bo": 2541,
      "Ġparticip": 2542,
      "\"}).": 2543,
      "af": 2544,
      "Ġbook": 2545,
      "Ġfoc": 2546,
      "uration": 2547,
      "mp": 2548,
      "value": 2549,
      "ev": 2550,
      "ĠUniversity": 2551,
      "rix": 2552,
      "bt": 2553,
      "Ġlo": 2554,
      "Ġmonths": 2555,
      "Ġregard": 2556,
      "ection": 2557,
      "Ġcy": 2558,
      "Sh": 2559,
      "minist": 2560,
      "ules": 2561,
      "Ġdisease": 2562,
      "Ġthird": 2563,
      "ortun": 2564,
      "anc": 2565,
      "wh": 2566,
      "log": 2567,
      "Ġestabl": 2568,
      "eq": 2569,
      "Ġcult": 2570,
      "Ġair": 2571,
      "Ġmeasure": 2572,
      "Ġmom": 2573,
      "ruction": 2574,
      "ĠÐ": 2575,
      "Ġearly": 2576,
      "Ġdoing": 2577,
      "cted": 2578,
      "Ġsocial": 2579,
      "Data": 2580,
      "Ġinde": 2581,
      "Ġep": 2582,
      "Ġcreate": 2583,
      "Ġestim": 2584,
      "ror": 2585,
      "ĊĠĠĠĠĠĠĠĠĠĠĠĠĠĠĠĠĠĠĠĠĠĠĠĠĠĠĠĠĠĠĠĠ": 2586,
      "mat": 2587,
      "View": 2588,
      "roid": 2589,
      "Ph": 2590,
      "umber": 2591,
      "Ġmeet": 2592,
      "pper": 2593,
      "unt": 2594,
      "Ġnormal": 2595,
      "icense": 2596,
      "No": 2597,
      "Ġfrequ": 2598,
      "ependent": 2599,
      "App": 2600,
      "78": 2601,
      "Ġeconom": 2602,
      "Ġcalcul": 2603,
      "Ġclear": 2604,
      "Ġstructure": 2605,
      "ĊĠĠĠĠĠĠ": 2606,
      "Ġexc": 2607,
      "Ġdefendant": 2608,
      "Ġclin": 2609,
      "file": 2610,
      "ucle": 2611,
      "Ġcontent": 2612,
      "Ġspecial": 2613,
      "Ġprior": 2614,
      "Ġdescribed": 2615,
      "ĠSee": 2616,
      "Ġdeath": 2617,
      "Ġbehav": 2618,
      "mathrm": 2619,
      "%)": 2620,
      "ened": 2621,
      "Ġprivate": 2622,
      "Ġmultiple": 2623,
      "off": 2624,
      "sqrt": 2625,
      "Ġviol": 2626,
      "ĠGen": 2627,
      "const": 2628,
      "Ġactually": 2629,
      "Ġpositive": 2630,
      "comm": 2631,
      "mber": 2632,
      "icult": 2633,
      "Ġpoints": 2634,
      "Ġcompany": 2635,
      "uf": 2636,
      "ript": 2637,
      "Ġversion": 2638,
      "Ob": 2639,
      "load": 2640,
      "There": 2641,
      "Ġseason": 2642,
      "Ġwa": 2643,
      "Un": 2644,
      "oms": 2645,
      "inary": 2646,
      "Ġdrug": 2647,
      "CH": 2648,
      "Ġsignal": 2649,
      "Ġacross": 2650,
      ")*": 2651,
      "ixed": 2652,
      "ĠCan": 2653,
      "Ġothers": 2654,
      "Ġquant": 2655,
      "imum": 2656,
      "ony": 2657,
      "Ġconcer": 2658,
      "ires": 2659,
      "equ": 2660,
      "ounds": 2661,
      "Ġsurface": 2662,
      "Ġrather": 2663,
      "pec": 2664,
      "Ġbreak": 2665,
      "Ġonce": 2666,
      "gamma": 2667,
      "Ġmax": 2668,
      "Ġinitial": 2669,
      "Ġear": 2670,
      "ening": 2671,
      "ceed": 2672,
      "Ġq": 2673,
      "ĠĠĠĠĠĠĠĠĠĠ": 2674,
      "bib": 2675,
      "ĠMr": 2676,
      "Ġcut": 2677,
      "ĠBe": 2678,
      "}{\\": 2679,
      "ĠFig": 2680,
      "ĠAN": 2681,
      "irm": 2682,
      "\");": 2683,
      "posed": 2684,
      "itch": 2685,
      "Ġey": 2686,
      "AB": 2687,
      "Ġlikely": 2688,
      "+\\": 2689,
      "bit": 2690,
      "Ġfive": 2691,
      "Ġpick": 2692,
      "OM": 2693,
      "/*": 2694,
      "Ġred": 2695,
      "ilde": 2696,
      "Ġshows": 2697,
      "Ġcorrespon": 2698,
      "ogen": 2699,
      "OS": 2700,
      "Ġmillion": 2701,
      "Ġperformed": 2702,
      "Ġdam": 2703,
      "Ġshowed": 2704,
      "Ġbelow": 2705,
      "Ġweight": 2706,
      "sy": 2707,
      "delta": 2708,
      "ĠAmerican": 2709,
      "Ġmembers": 2710,
      "Ġmatter": 2711,
      "Ġmarket": 2712,
      "Ġfactor": 2713,
      "Ġhouse": 2714,
      "Ġdetect": 2715,
      "Ġdemon": 2716,
      "ried": 2717,
      "Ġcame": 2718,
      "arc": 2719,
      "Ġsystems": 2720,
      "ude": 2721,
      "Ġapproach": 2722,
      "Ġeval": 2723,
      "rho": 2724,
      "atter": 2725,
      "Ġspect": 2726,
      "Ġhtt": 2727,
      "ĠAss": 2728,
      "gree": 2729,
      "Ġaffect": 2730,
      "ĠGod": 2731,
      "Ġfalse": 2732,
      "Ġcause": 2733,
      "Ġmus": 2734,
      "no": 2735,
      "09": 2736,
      "Ġver": 2737,
      "ĠIN": 2738,
      "Ġobtained": 2739,
      ".)": 2740,
      "ĠMay": 2741,
      "Ġsite": 2742,
      "ensity": 2743,
      "cular": 2744,
      "Ġbar": 2745,
      "Ġtook": 2746,
      "Ġmakes": 2747,
      "year": 2748,
      "obal": 2749,
      "Ġ(*": 2750,
      ")(": 2751,
      "86": 2752,
      "So": 2753,
      "07": 2754,
      "ones": 2755,
      "Ġnight": 2756,
      "hing": 2757,
      "idered": 2758,
      "ama": 2759,
      "raft": 2760,
      "iter": 2761,
      "lim": 2762,
      "Ġvarious": 2763,
      "Ġapplication": 2764,
      "Ġever": 2765,
      "Ġvar": 2766,
      "onal": 2767,
      "Ġcancer": 2768,
      "IM": 2769,
      "Ġblood": 2770,
      "uses": 2771,
      "Ġsoft": 2772,
      "my": 2773,
      "Ġexperience": 2774,
      "ai": 2775,
      "Ġscre": 2776,
      "Ġmar": 2777,
      "Ġwrit": 2778,
      "Ġdecre": 2779,
      "03": 2780,
      "enc": 2781,
      "Ġlimit": 2782,
      "Ġdeal": 2783,
      "anguage": 2784,
      "'d": 2785,
      "hold": 2786,
      "001": 2787,
      "Ġtemper": 2788,
      "uild": 2789,
      "Ġwhole": 2790,
      "Ġtaken": 2791,
      "Ġanti": 2792,
      "Ġflow": 2793,
      "Ġconsidered": 2794,
      "Ġadded": 2795,
      "Ġfuture": 2796,
      "rad": 2797,
      "Ġ$(": 2798,
      "Ġrelated": 2799,
      "now": 2800,
      "oph": 2801,
      "abor": 2802,
      "Ġclos": 2803,
      "ager": 2804,
      "Ġoccur": 2805,
      "net": 2806,
      "ino": 2807,
      "plement": 2808,
      "Ġele": 2809,
      "Ġyet": 2810,
      "Ġconcent": 2811,
      "^\\": 2812,
      "rec": 2813,
      "illed": 2814,
      "Ġdefined": 2815,
      "Ġaddress": 2816,
      "ĠOne": 2817,
      "49": 2818,
      "Ġdemonstr": 2819,
      "Figure": 2820,
      "umn": 2821,
      "Ġloss": 2822,
      "ĠĠĠĠĠĠĠĠĠĠĠĠĠĠĠĠĠĠĠĠĠĠĠĠĠĠĠĠĠĠĠĠĠĠĠĠĠĠĠĠĠĠĠĠĠĠĠĠĠĠĠĠĠĠĠĠĠĠĠĠĠĠĠĠĠĠĠĠĠĠĠĠĠĠĠĠĠĠĠĠĠĠĠĠĠĠĠĠĠĠĠĠĠĠĠĠĠĠĠĠĠĠĠĠĠĠĠĠĠĠĠĠĠĠĠĠĠĠĠĠĠĠĠĠĠĠĠĠ": 2823,
      "Ġblock": 2824,
      "Ġparent": 2825,
      "pping": 2826,
      "Â°": 2827,
      "OP": 2828,
      "big": 2829,
      "Ġbelieve": 2830,
      "rim": 2831,
      "87": 2832,
      "Ġmut": 2833,
      "ĠTe": 2834,
      "Ġnull": 2835,
      "------------": 2836,
      "Ġitem": 2837,
      "aff": 2838,
      "Ġhom": 2839,
      "oll": 2840,
      "Ġconsist": 2841,
      "46": 2842,
      "ĠJohn": 2843,
      "Ġrelationship": 2844,
      "ĠThen": 2845,
      "ero": 2846,
      "dis": 2847,
      "iding": 2848,
      "partial": 2849,
      "Ġsolution": 2850,
      "Im": 2851,
      "wards": 2852,
      "Ġcommunity": 2853,
      "see": 2854,
      "$-": 2855,
      "ply": 2856,
      "57": 2857,
      "lam": 2858,
      "Ġstates": 2859,
      "xim": 2860,
      "Ġwent": 2861,
      "Ġminutes": 2862,
      "ÂłÂł": 2863,
      "Ð¾": 2864,
      "Ġsex": 2865,
      "andom": 2866,
      "Ġfra": 2867,
      "42": 2868,
      "ĠWith": 2869,
      "Ġrat": 2870,
      "ĠAfter": 2871,
      "ĠCent": 2872,
      "xi": 2873,
      "ĠCar": 2874,
      "ball": 2875,
      "Ġdecision": 2876,
      "ĠChrist": 2877,
      "leq": 2878,
      "')": 2879,
      "Ġassess": 2880,
      "ledge": 2881,
      "Ġmind": 2882,
      "size": 2883,
      "Ġland": 2884,
      "chie": 2885,
      "aged": 2886,
      "Ġdifficult": 2887,
      "Ġur": 2888,
      "ulated": 2889,
      "Ġmaint": 2890,
      "rc": 2891,
      "Ġdevice": 2892,
      "Ġimmun": 2893,
      "ober": 2894,
      "Ġtrying": 2895,
      "Ġincluded": 2896,
      "ĠPat": 2897,
      "~~": 2898,
      "UT": 2899,
      "ĠOb": 2900,
      "Ãĥ": 2901,
      "Ġcamp": 2902,
      "pose": 2903,
      "verse": 2904,
      "Ġcross": 2905,
      "Ġinhib": 2906,
      "ãĤ": 2907,
      "Ġdecl": 2908,
      "Ġexam": 2909,
      "Ġcard": 2910,
      "Ġregion": 2911,
      "Ġcontract": 2912,
      "atus": 2913,
      "SS": 2914,
      "enn": 2915,
      "*,": 2916,
      "body": 2917,
      "Ġenvironment": 2918,
      "89": 2919,
      "Ġhalf": 2920,
      "Ġground": 2921,
      "unc": 2922,
      "ached": 2923,
      "Ġtoday": 2924,
      "theta": 2925,
      "Ġrespectively": 2926,
      "ideo": 2927,
      "Ġface": 2928,
      "util": 2929,
      "inding": 2930,
      "ĠĊ": 2931,
      "Ġtrad": 2932,
      "where": 2933,
      "ÂĤ": 2934,
      "Ġclose": 2935,
      "izing": 2936,
      "Ġmagn": 2937,
      "Ġcustom": 2938,
      "Ġdefin": 2939,
      "],[@": 2940,
      "Ġappl": 2941,
      "Ġreceived": 2942,
      "Ġce": 2943,
      "IR": 2944,
      "Ġ},": 2945,
      "dro": 2946,
      "itting": 2947,
      "mitted": 2948,
      "une": 2949,
      "aging": 2950,
      "IL": 2951,
      "ender": 2952,
      "Ġadditional": 2953,
      "Ġentire": 2954,
      "ĠAct": 2955,
      "Ġintegr": 2956,
      "omega": 2957,
      "Ġchall": 2958,
      "Ġtable": 2959,
      "Ġcity": 2960,
      "ternal": 2961,
      "CL": 2962,
      "Ġsignificantly": 2963,
      "Ġanything": 2964,
      "}}\\": 2965,
      "mary": 2966,
      "Ġpatient": 2967,
      "lying": 2968,
      "Ġdat": 2969,
      "ribute": 2970,
      "Ġfav": 2971,
      "ĠMore": 2972,
      "etition": 2973,
      "Ġnetwork": 2974,
      "Ġsix": 2975,
      "Ġsimple": 2976,
      "Ġill": 2977,
      "odes": 2978,
      "ike": 2979,
      "lor": 2980,
      "Ġsus": 2981,
      "ĠÂ§": 2982,
      "Ġaccept": 2983,
      "Ġbound": 2984,
      "position": 2985,
      "wise": 2986,
      "Ġdig": 2987,
      "06": 2988,
      "gl": 2989,
      "Ġbring": 2990,
      "43": 2991,
      "Ġnat": 2992,
      "Ġlink": 2993,
      "reed": 2994,
      "Ġcompl": 2995,
      "Ġgrowth": 2996,
      "uk": 2997,
      "agement": 2998,
      "istance": 2999,
      "Ġneeds": 3000,
      "Ġasked": 3001,
      "hel": 3002,
      "ocal": 3003,
      "ederal": 3004,
      "ensive": 3005,
      "ĠMy": 3006,
      "IP": 3007,
      "AA": 3008,
      "93": 3009,
      "Ġgetting": 3010,
      "ĠMed": 3011,
      "Ġhistory": 3012,
      "pecially": 3013,
      "****************": 3014,
      "Ġ\\\\": 3015,
      "Ġpan": 3016,
      "Ġtw": 3017,
      "tau": 3018,
      "ram": 3019,
      "Get": 3020,
      "Ġlength": 3021,
      "Ġwin": 3022,
      "gress": 3023,
      "Ġheart": 3024,
      "Ġindu": 3025,
      "Table": 3026,
      "apt": 3027,
      "Ðµ": 3028,
      "Ġlooking": 3029,
      "ĠInt": 3030,
      "Ġnear": 3031,
      "Ġimprove": 3032,
      "aced": 3033,
      "])": 3034,
      "Ġroom": 3035,
      "using": 3036,
      "Ġattack": 3037,
      "ops": 3038,
      "Ġdifference": 3039,
      "include": 3040,
      "Ġhref": 3041,
      "miss": 3042,
      "Ġmethods": 3043,
      "Ġtum": 3044,
      "nu": 3045,
      "bf": 3046,
      "Ġseries": 3047,
      "++": 3048,
      "All": 3049,
      "UR": 3050,
      "Ġparty": 3051,
      "Ġcontact": 3052,
      "orld": 3053,
      "based": 3054,
      "isf": 3055,
      "Ġperformance": 3056,
      "Ġexec": 3057,
      "pre": 3058,
      "ĠĠĠĠĠĠĠĠĠĠĠĠĠĠĠ": 3059,
      "ication": 3060,
      "ENT": 3061,
      "uly": 3062,
      "but": 3063,
      "Ġpaper": 3064,
      "ĠMan": 3065,
      "Ġproblems": 3066,
      "Int": 3067,
      "Ġvia": 3068,
      "ÃĹ": 3069,
      "Ġplaintiff": 3070,
      "ĠEng": 3071,
      "fully": 3072,
      "Ġinput": 3073,
      "ris": 3074,
      "times": 3075,
      "Ġthus": 3076,
      "84": 3077,
      "US": 3078,
      "Ġmiss": 3079,
      "Ġissues": 3080,
      "Ġinvolved": 3081,
      "92": 3082,
      "Ġsubst": 3083,
      "infty": 3084,
      "Ġ...": 3085,
      "Ġcorrect": 3086,
      "Ġ21": 3087,
      "Ġalmost": 3088,
      "Wh": 3089,
      "Â±": 3090,
      "Ġpattern": 3091,
      "IV": 3092,
      ")}": 3093,
      "state": 3094,
      "Ġadj": 3095,
      "Ġnothing": 3096,
      "ĠSte": 3097,
      "Ġhours": 3098,
      "56": 3099,
      "à¤": 3100,
      "Ġeff": 3101,
      "Ġservices": 3102,
      "Ġtherefore": 3103,
      "yz": 3104,
      "rid": 3105,
      "Ġprevent": 3106,
      "ief": 3107,
      "OL": 3108,
      "Ġneeded": 3109,
      "Ġexpected": 3110,
      "oo": 3111,
      "Ãĳ": 3112,
      "With": 3113,
      "Ġeduc": 3114,
      "ĠDep": 3115,
      "Ð°": 3116,
      "irl": 3117,
      "When": 3118,
      "Ġadminist": 3119,
      "Ġassum": 3120,
      "ĠMc": 3121,
      "Ġworks": 3122,
      "more": 3123,
      "Ġheld": 3124,
      "uments": 3125,
      "box": 3126,
      "ĠCount": 3127,
      "iles": 3128,
      "ĠĠĠĠĠĠĠĠĠĠĠĠ": 3129,
      "anks": 3130,
      "ilt": 3131,
      "ĠMar": 3132,
      "Value": 3133,
      "ilities": 3134,
      "Ġpopulation": 3135,
      "Ġinstead": 3136,
      "Ġachie": 3137,
      "Ġofficial": 3138,
      "Ġfilm": 3139,
      "comes": 3140,
      "Ġblack": 3141,
      "ynam": 3142,
      "Ġemb": 3143,
      "Ġansw": 3144,
      "erc": 3145,
      "Ġinflu": 3146,
      "urope": 3147,
      "čĊĠĠĠ": 3148,
      "https": 3149,
      "Ġhost": 3150,
      "EM": 3151,
      "Ġshall": 3152,
      "width": 3153,
      "ĠBy": 3154,
      "Ġattempt": 3155,
      "function": 3156,
      "lt": 3157,
      "Ġbegin": 3158,
      "gest": 3159,
      "Ġrecent": 3160,
      "Ġ$$": 3161,
      "list": 3162,
      "Ġlines": 3163,
      "Ġseems": 3164,
      "Set": 3165,
      "atively": 3166,
      "Ġang": 3167,
      "Ġfall": 3168,
      "By": 3169,
      "Ġgene": 3170,
      "like": 3171,
      "Ġimplement": 3172,
      "76": 3173,
      "ĠDef": 3174,
      "ales": 3175,
      "rs": 3176,
      "itten": 3177,
      "olve": 3178,
      "ips": 3179,
      "atal": 3180,
      "PE": 3181,
      "come": 3182,
      "Ġremov": 3183,
      "Ġidea": 3184,
      "41": 3185,
      "ĠCor": 3186,
      "Ġstep": 3187,
      "That": 3188,
      "Ġpolice": 3189,
      "ii": 3190,
      "Ġcoll": 3191,
      "Ġstory": 3192,
      "with": 3193,
      "Ġmotion": 3194,
      "Ġintrodu": 3195,
      "TR": 3196,
      "Ġelement": 3197,
      "En": 3198,
      "selves": 3199,
      "));": 3200,
      "Ġcomes": 3201,
      "Ġstudents": 3202,
      "![": 3203,
      "Ġpubl": 3204,
      "}$,": 3205,
      "ros": 3206,
      "uth": 3207,
      "Ġ(-": 3208,
      "Ġpredict": 3209,
      "Ġproduction": 3210,
      "Ġcolor": 3211,
      "Ġ40": 3212,
      "Ġbad": 3213,
      "Ġquality": 3214,
      "Ġtool": 3215,
      "91": 3216,
      "\";": 3217,
      "Ġdisplay": 3218,
      "ĠMon": 3219,
      "Ġoutput": 3220,
      "Ġsomeone": 3221,
      "ĠNot": 3222,
      "Pl": 3223,
      "ĠCont": 3224,
      "lation": 3225,
      "anced": 3226,
      "Ġmodels": 3227,
      "word": 3228,
      "des": 3229,
      "Ġreve": 3230,
      "px": 3231,
      "ging": 3232,
      "field": 3233,
      "rapy": 3234,
      "Ġlearn": 3235,
      "Ġtaking": 3236,
      "trans": 3237,
      "Ġstarted": 3238,
      "Ġpage": 3239,
      "ĠTHE": 3240,
      "Ġdocument": 3241,
      "ĠYork": 3242,
      "Ġfig": 3243,
      "Ġmedia": 3244,
      "light": 3245,
      "Ġprovides": 3246,
      "ĠAm": 3247,
      "Ġyoung": 3248,
      "ensure": 3249,
      "Ġste": 3250,
      "ĠIm": 3251,
      "Ġdistribution": 3252,
      "Ġload": 3253,
      "Ġpolicy": 3254,
      "Ġitself": 3255,
      "RNA": 3256,
      "Ġsearch": 3257,
      "Ġ22": 3258,
      "ster": 3259,
      "ĠThus": 3260,
      "Ġnecessary": 3261,
      "ĠMin": 3262,
      "ills": 3263,
      "\\\\": 3264,
      "rown": 3265,
      "}$.": 3266,
      "Ġrecogn": 3267,
      "document": 3268,
      "ulations": 3269,
      "ying": 3270,
      "ches": 3271,
      "Ġindust": 3272,
      "53": 3273,
      "eks": 3274,
      "unch": 3275,
      "Ġnucle": 3276,
      "Ġ28": 3277,
      "Ġaverage": 3278,
      "ĠĠĠĠĠĠĠĠĠĠĠĠĠ": 3279,
      "ĠPres": 3280,
      "aled": 3281,
      "Ġlive": 3282,
      "Ġproced": 3283,
      "astic": 3284,
      "down": 3285,
      "^*": 3286,
      "ospital": 3287,
      "ites": 3288,
      "Ġrights": 3289,
      "Ġappear": 3290,
      "ĠDo": 3291,
      "Ġprobably": 3292,
      "ĠPol": 3293,
      "define": 3294,
      "Ġ||": 3295,
      "54": 3296,
      "Ġcompar": 3297,
      "rror": 3298,
      "Ġdiagn": 3299,
      "Ġoriginal": 3300,
      "utions": 3301,
      "Ġfront": 3302,
      "ĠNational": 3303,
      "ĠTrump": 3304,
      "Ġdire": 3305,
      "Mod": 3306,
      "Ġclinical": 3307,
      "ĊĠĠĠĠĠĠĠĠĠĠĠĠĠĠĠĠĠĠĠĠĠĠĠ": 3308,
      "Ġess": 3309,
      "Ġmoment": 3310,
      "Delta": 3311,
      "book": 3312,
      "Ġalleg": 3313,
      "Ġconfig": 3314,
      "hem": 3315,
      "elt": 3316,
      "pri": 3317,
      "Ġexact": 3318,
      "param": 3319,
      "Ġimpact": 3320,
      "Ġpret": 3321,
      "Ġfunctions": 3322,
      "Ġ27": 3323,
      "Ġsimply": 3324,
      "Ġproducts": 3325,
      "Ġâ": 3326,
      "ccording": 3327,
      "amed": 3328,
      "ributed": 3329,
      "ĠOF": 3330,
      "Ġphase": 3331,
      "Ġcorrel": 3332,
      "Ġwalk": 3333,
      "ecause": 3334,
      "error": 3335,
      "Ġespecially": 3336,
      "osition": 3337,
      "Ġdim": 3338,
      "Ġindex": 3339,
      "iqu": 3340,
      "Ġtemperature": 3341,
      "fr": 3342,
      "eration": 3343,
      "eter": 3344,
      "Ġwords": 3345,
      "hers": 3346,
      "ĠEurope": 3347,
      "clusion": 3348,
      "|\\": 3349,
      "PS": 3350,
      "comp": 3351,
      "Ġsequence": 3352,
      "overed": 3353,
      "ĠBo": 3354,
      "Ġfoot": 3355,
      "olic": 3356,
      "istics": 3357,
      "Ġsample": 3358,
      "bb": 3359,
      "Ġproperties": 3360,
      "su": 3361,
      "Ġcontext": 3362,
      "83": 3363,
      "ãĥ": 3364,
      "Ġdest": 3365,
      "Ġconv": 3366,
      "Ġgra": 3367,
      "Ġdepend": 3368,
      "oke": 3369,
      "augh": 3370,
      "Ġformer": 3371,
      "xy": 3372,
      "Ġinstall": 3373,
      "Object": 3374,
      "Ġvalid": 3375,
      "point": 3376,
      "Ġpersonal": 3377,
      "Ġchem": 3378,
      "Ġeffort": 3379,
      "Ġ!=": 3380,
      "Ġassert": 3381,
      "Ġprint": 3382,
      "Text": 3383,
      "actions": 3384,
      "Ġcomplete": 3385,
      "Ġderiv": 3386,
      "inally": 3387,
      "ards": 3388,
      "refore": 3389,
      "Ġsil": 3390,
      "Ġdetermined": 3391,
      "Ġpresence": 3392,
      "arily": 3393,
      "ĠCity": 3394,
      "($": 3395,
      "Ġmedical": 3396,
      "Ġcopy": 3397,
      "perty": 3398,
      "ĠMe": 3399,
      "iddle": 3400,
      "ĠEn": 3401,
      "Ġdistrict": 3402,
      "Ġconsum": 3403,
      "Ġ26": 3404,
      "Ġstatic": 3405,
      "Ġevents": 3406,
      "quad": 3407,
      "array": 3408,
      "Ġmole": 3409,
      "Ġgenes": 3410,
      "Ġquick": 3411,
      "My": 3412,
      "Ġ23": 3413,
      "\\*": 3414,
      "ili": 3415,
      "Ġpoly": 3416,
      "Ġcred": 3417,
      "Ind": 3418,
      "Ġpolitical": 3419,
      "Ġoutside": 3420,
      "Ġpressure": 3421,
      "ĠInc": 3422,
      "ien": 3423,
      "Ġsense": 3424,
      "plit": 3425,
      "inks": 3426,
      "Ġarray": 3427,
      "sl": 3428,
      "ux": 3429,
      "ymb": 3430,
      "struct": 3431,
      "Ġdate": 3432,
      "Ġsatisf": 3433,
      "Ġstrateg": 3434,
      "Ġeffective": 3435,
      "ran": 3436,
      "Ġtypes": 3437,
      "Ġlack": 3438,
      "ĠJan": 3439,
      "Ġprimary": 3440,
      "ĠCD": 3441,
      "ĠString": 3442,
      "52": 3443,
      "Ġlanguage": 3444,
      "OD": 3445,
      "ults": 3446,
      "dom": 3447,
      "Ġeverything": 3448,
      "Ġ&&": 3449,
      "Ġcreat": 3450,
      "File": 3451,
      "MS": 3452,
      "item": 3453,
      "Ad": 3454,
      "Ġwrong": 3455,
      "Ġremain": 3456,
      "char": 3457,
      "At": 3458,
      "58": 3459,
      "ronic": 3460,
      "Ġphysical": 3461,
      "path": 3462,
      "ocr": 3463,
      "Ġfeatures": 3464,
      "ĠÂ±": 3465,
      "Ġlonger": 3466,
      "/>": 3467,
      "../../": 3468,
      "annel": 3469,
      "cm": 3470,
      "ana": 3471,
      "]{},": 3472,
      "Ġinside": 3473,
      "do": 3474,
      "Ġpain": 3475,
      "Ġdetermine": 3476,
      "Ġconstit": 3477,
      "Ġselect": 3478,
      "Ġpresented": 3479,
      "Ġeasy": 3480,
      "culate": 3481,
      "bor": 3482,
      "Ġjudgment": 3483,
      "Ġquite": 3484,
      "Ġidentified": 3485,
      "Ġnews": 3486,
      "Ġcreated": 3487,
      "Ġmi": 3488,
      "Ġstop": 3489,
      "public": 3490,
      "Ġacid": 3491,
      "ese": 3492,
      "ises": 3493,
      "sych": 3494,
      "Ġrunning": 3495,
      "fra": 3496,
      "icon": 3497,
      "59": 3498,
      "Ġincreasing": 3499,
      "Ġsamples": 3500,
      "ags": 3501,
      "ĠPr": 3502,
      "Ġbasis": 3503,
      "Ed": 3504,
      "ĠĠĠĠĠĠĠĠĠĠĠĠĠĠ": 3505,
      "Ġrandom": 3506,
      "aving": 3507,
      "Âĥ": 3508,
      "Ġsurv": 3509,
      "Ġhyp": 3510,
      "Ġstay": 3511,
      "Ġwhite": 3512,
      "Ġparameters": 3513,
      "Ġevalu": 3514,
      "Ġwanted": 3515,
      "Ġhope": 3516,
      "Ġtiss": 3517,
      "74": 3518,
      "ĠGe": 3519,
      "sim": 3520,
      "Ġstatus": 3521,
      "Ġfollows": 3522,
      "Ġcontroll": 3523,
      "Ġund": 3524,
      "Ġstatement": 3525,
      "72": 3526,
      "rast": 3527,
      "Item": 3528,
      "rack": 3529,
      "Ġmember": 3530,
      "ÑĤ": 3531,
      "81": 3532,
      "urch": 3533,
      "Ġapproxim": 3534,
      "Ġareas": 3535,
      "Ġfire": 3536,
      "ancial": 3537,
      "Ġpack": 3538,
      "}(\\": 3539,
      "82": 3540,
      "rite": 3541,
      "Ġsem": 3542,
      "Ġcontinu": 3543,
      "Ġisn": 3544,
      "79": 3545,
      "Ġelements": 3546,
      "ĠGu": 3547,
      "print": 3548,
      "ĠLicense": 3549,
      "Ġframe": 3550,
      "Par": 3551,
      "Ġweeks": 3552,
      "Ġoil": 3553,
      "ogle": 3554,
      "51": 3555,
      "asons": 3556,
      "Ġdirectly": 3557,
      "Ġpair": 3558,
      "Ġsecur": 3559,
      "Ġ?": 3560,
      "top": 3561,
      "Ġstra": 3562,
      "Ġconstant": 3563,
      "Not": 3564,
      "void": 3565,
      "âĢĲ": 3566,
      "ervice": 3567,
      "ĠPart": 3568,
      "lier": 3569,
      "CD": 3570,
      "Ġquestions": 3571,
      "Ġago": 3572,
      "sk": 3573,
      "Ġrecomm": 3574,
      "itary": 3575,
      "ottom": 3576,
      "Ġfun": 3577,
      "Ġ/*": 3578,
      "dev": 3579,
      "63": 3580,
      "________": 3581,
      "ĠPar": 3582,
      "Ġmemory": 3583,
      "Ġprinc": 3584,
      "ĠQu": 3585,
      "EL": 3586,
      "``": 3587,
      "lig": 3588,
      "ha": 3589,
      "Ġforce": 3590,
      "rial": 3591,
      "Qu": 3592,
      "UN": 3593,
      "Ġnatural": 3594,
      "Ġcry": 3595,
      "acc": 3596,
      "Ġgames": 3597,
      "user": 3598,
      "earch": 3599,
      "ega": 3600,
      "Ġtheory": 3601,
      "isions": 3602,
      "erson": 3603,
      "msg": 3604,
      "fection": 3605,
      "OC": 3606,
      "ellant": 3607,
      "Ġtraining": 3608,
      "itation": 3609,
      "Ġgrad": 3610,
      "ocol": 3611,
      "Ġstri": 3612,
      "gn": 3613,
      "Ã¡": 3614,
      "Key": 3615,
      "Ġpie": 3616,
      "Ġavoid": 3617,
      "Ġsett": 3618,
      "era": 3619,
      "Ps": 3620,
      "Ġ(\\[": 3621,
      "TH": 3622,
      "Ġknowledge": 3623,
      "lementary": 3624,
      "rangle": 3625,
      "Ġtransfer": 3626,
      "ĠPe": 3627,
      "Ġopportun": 3628,
      "Ġgas": 3629,
      "Ġcontinue": 3630,
      "ially": 3631,
      "Ġextra": 3632,
      "Ġple": 3633,
      "hood": 3634,
      "tilde": 3635,
      "ĠDNA": 3636,
      "Ġbuilding": 3637,
      "ĠHis": 3638,
      "Ġbehind": 3639,
      "plate": 3640,
      "ĠHar": 3641,
      "73": 3642,
      "from": 3643,
      "met": 3644,
      "het": 3645,
      "clus": 3646,
      "rote": 3647,
      "ĠSystem": 3648,
      ")$.": 3649,
      "ously": 3650,
      "ĠDr": 3651,
      "Ġfem": 3652,
      "De": 3653,
      "Ġgreater": 3654,
      "reet": 3655,
      "Ġcontain": 3656,
      "Ġapplied": 3657,
      "Ġshare": 3658,
      "Ġmis": 3659,
      "iet": 3660,
      "\\])": 3661,
      "cell": 3662,
      "Ġreplace": 3663,
      "fs": 3664,
      "Ġlimited": 3665,
      "Ġvideo": 3666,
      "rows": 3667,
      "ferences": 3668,
      "oma": 3669,
      "ayout": 3670,
      "Ġmice": 3671,
      "PL": 3672,
      "Ġdefault": 3673,
      "lege": 3674,
      "Ġrelease": 3675,
      "ML": 3676,
      "map": 3677,
      "Ġpreviously": 3678,
      "vere": 3679,
      "Ġbehavior": 3680,
      "aves": 3681,
      "ĠSuppose": 3682,
      "Ġmap": 3683,
      "Ġincludes": 3684,
      "Ġreduced": 3685,
      "Ġful": 3686,
      "Ġsaw": 3687,
      "Ġtitle": 3688,
      "pite": 3689,
      "term": 3690,
      "oles": 3691,
      "cdot": 3692,
      "ague": 3693,
      "ĠTherefore": 3694,
      "Ġjo": 3695,
      "oat": 3696,
      "\".": 3697,
      "Ġvict": 3698,
      "SD": 3699,
      "ula": 3700,
      "roph": 3701,
      "Ġability": 3702,
      "Ġoption": 3703,
      "script": 3704,
      "Ġnational": 3705,
      "max": 3706,
      "mpt": 3707,
      "Ġbur": 3708,
      "Ġexpress": 3709,
      "71": 3710,
      "Ġveh": 3711,
      "elling": 3712,
      "BC": 3713,
      "js": 3714,
      "Ġfriend": 3715,
      "ĠPresident": 3716,
      "arning": 3717,
      "ada": 3718,
      "Ġmessage": 3719,
      "ÃĤ": 3720,
      "Ġstyle": 3721,
      "ĠIntern": 3722,
      "Ġ60": 3723,
      "Ġmach": 3724,
      "Ġclaims": 3725,
      "osure": 3726,
      "isms": 3727,
      "Ġdeveloped": 3728,
      "imate": 3729,
      "Or": 3730,
      "rant": 3731,
      "Ġimmedi": 3732,
      "Ġarticle": 3733,
      "rief": 3734,
      ":**": 3735,
      "Ġopin": 3736,
      "Ġrev": 3737,
      "apter": 3738,
      "umb": 3739,
      "ader": 3740,
      "ĊĊĊ": 3741,
      "Ġlayer": 3742,
      "fered": 3743,
      "osph": 3744,
      "Ġfavor": 3745,
      "ĠOur": 3746,
      "ĠAf": 3747,
      "Ð¸": 3748,
      "Ġaccom": 3749,
      "().": 3750,
      "ech": 3751,
      "sm": 3752,
      "length": 3753,
      "Ġimpl": 3754,
      "Ġpresident": 3755,
      "Ġhot": 3756,
      "Ġcompan": 3757,
      "icles": 3758,
      "Ġinvention": 3759,
      "orks": 3760,
      "ners": 3761,
      "Ġsoftware": 3762,
      "psilon": 3763,
      "iber": 3764,
      ".'": 3765,
      "pen": 3766,
      "ament": 3767,
      "aches": 3768,
      "Test": 3769,
      "Ġindependent": 3770,
      "Ġwrite": 3771,
      "Ġmother": 3772,
      "Ġprec": 3773,
      "kn": 3774,
      "ĠAP": 3775,
      "ĠFurther": 3776,
      "Ġhttp": 3777,
      "otic": 3778,
      "ĠId": 3779,
      "Ġnumbers": 3780,
      "...\"": 3781,
      "Ġplayers": 3782,
      "Ġwritten": 3783,
      "She": 3784,
      "Ġappropri": 3785,
      "Ġprotect": 3786,
      "Ġmatch": 3787,
      "Ġdouble": 3788,
      "Ġautom": 3789,
      "Ġreference": 3790,
      "Ġword": 3791,
      "och": 3792,
      "Def": 3793,
      "Ġantib": 3794,
      "]^": 3795,
      "62": 3796,
      "Ġfollowed": 3797,
      "ĠNe": 3798,
      "ĠDist": 3799,
      "Ġcoming": 3800,
      "Ġ2012": 3801,
      "uary": 3802,
      "Ġparticularly": 3803,
      "aign": 3804,
      "ĠCounty": 3805,
      "ĠComp": 3806,
      "ethyl": 3807,
      "Ġcand": 3808,
      "atives": 3809,
      "ocation": 3810,
      "IF": 3811,
      "ĠSim": 3812,
      "Ġslow": 3813,
      ")=": 3814,
      "Ġleave": 3815,
      "ĠJust": 3816,
      "CA": 3817,
      "apan": 3818,
      "range": 3819,
      "čĊč": 3820,
      "Ġactive": 3821,
      "gor": 3822,
      "ĠSouth": 3823,
      "EX": 3824,
      "Ġir": 3825,
      "Ġobtain": 3826,
      "Ġrefer": 3827,
      "Ġsecurity": 3828,
      "illi": 3829,
      "ĠSince": 3830,
      "ĠDem": 3831,
      "rupt": 3832,
      "Ġprep": 3833,
      "Ġbir": 3834,
      "Ġclean": 3835,
      "urb": 3836,
      "Ġforward": 3837,
      "Ġnegative": 3838,
      "Ġmention": 3839,
      "Ġunit": 3840,
      "Ġrepe": 3841,
      "iven": 3842,
      "ishing": 3843,
      "vention": 3844,
      "ĠRuss": 3845,
      "Ġ;": 3846,
      "Ġcorresponding": 3847,
      "ĠWhile": 3848,
      "Ġconstruct": 3849,
      "Ġ[*": 3850,
      "Ġgirl": 3851,
      "ĠPa": 3852,
      "ĠST": 3853,
      "Ġwindow": 3854,
      "supp": 3855,
      "Ġlate": 3856,
      "ĠOR": 3857,
      "Add": 3858,
      "Ġnature": 3859,
      "ĠDes": 3860,
      "Ġspecies": 3861,
      "Ġusually": 3862,
      "abase": 3863,
      "fo": 3864,
      "non": 3865,
      "hest": 3866,
      "Ġvot": 3867,
      "ä¸": 3868,
      "MA": 3869,
      "Ġrule": 3870,
      "ashing": 3871,
      "ĠNorth": 3872,
      "Ġrates": 3873,
      "Ġdifferences": 3874,
      "mega": 3875,
      "Ġliving": 3876,
      "Ġoffice": 3877,
      "61": 3878,
      "Ġaltern": 3879,
      "Ġalthough": 3880,
      "Ġanswer": 3881,
      "Ġdynam": 3882,
      "Ġwhose": 3883,
      "Ġorg": 3884,
      "Ġnote": 3885,
      "Ġ2013": 3886,
      "inated": 3887,
      "Ġbox": 3888,
      "Ġglobal": 3889,
      "ĠPer": 3890,
      "Ġpurch": 3891,
      "ĠReg": 3892,
      "Ġpractice": 3893,
      "reng": 3894,
      "Ġoffer": 3895,
      "Ġtried": 3896,
      "SP": 3897,
      "levant": 3898,
      "Ġbrain": 3899,
      "Ġargument": 3900,
      "Ġanim": 3901,
      "Ġetc": 3902,
      "Ġregular": 3903,
      "eline": 3904,
      "ĠWorld": 3905,
      "Ġonline": 3906,
      "Le": 3907,
      "Ġgrant": 3908,
      "Ġinstance": 3909,
      "ĠVal": 3910,
      "Ġwebs": 3911,
      "ĠHere": 3912,
      "atform": 3913,
      "}}$": 3914,
      "Ġpo": 3915,
      "Ġcompet": 3916,
      "group": 3917,
      "Ġ2016": 3918,
      "isc": 3919,
      "Ġgenerally": 3920,
      "ils": 3921,
      "Ġlost": 3922,
      "oon": 3923,
      "cast": 3924,
      "Ġsle": 3925,
      "ste": 3926,
      "Ġrecently": 3927,
      "aries": 3928,
      "psi": 3929,
      "Ġprot": 3930,
      "itness": 3931,
      "Des": 3932,
      "inate": 3933,
      "erve": 3934,
      "Ġaccur": 3935,
      "Ġwall": 3936,
      "encies": 3937,
      "quest": 3938,
      "Ġthemselves": 3939,
      "////////": 3940,
      "urance": 3941,
      "change": 3942,
      "Ġ2014": 3943,
      "Suppose": 3944,
      "ener": 3945,
      "Ġbackground": 3946,
      "Ġanyone": 3947,
      "ĠSm": 3948,
      "pret": 3949,
      "illing": 3950,
      "Ġtakes": 3951,
      "Ġproposed": 3952,
      "Ġcountries": 3953,
      "link": 3954,
      "Ġwatch": 3955,
      "ĠEd": 3956,
      "ĠPhys": 3957,
      "joy": 3958,
      "Ġagreement": 3959,
      "ĠGo": 3960,
      "================================": 3961,
      "ĠSome": 3962,
      "vey": 3963,
      "Ġge": 3964,
      "Ġsort": 3965,
      "Ġdriv": 3966,
      "pat": 3967,
      "ees": 3968,
      "pace": 3969,
      "Ġresid": 3970,
      "ĠâĪĴ": 3971,
      "Ġsaying": 3972,
      "ivil": 3973,
      "CE": 3974,
      "Ġexcept": 3975,
      "Ġdensity": 3976,
      "Ġball": 3977,
      "Ġstress": 3978,
      "Ġ/>": 3979,
      "Exception": 3980,
      "resh": 3981,
      "wide": 3982,
      "Ġtreated": 3983,
      "gorith": 3984,
      "lin": 3985,
      "Ġessential": 3986,
      "py": 3987,
      "ĠII": 3988,
      "orph": 3989,
      "*~": 3990,
      "rew": 3991,
      "ned": 3992,
      "ĠDav": 3993,
      "Ġanalyz": 3994,
      "vare": 3995,
      "One": 3996,
      "ĠOct": 3997,
      "}=": 3998,
      "Ġhimself": 3999,
      "ĠMarch": 4000,
      "Error": 4001,
      "ming": 4002,
      "Ġlegal": 4003,
      "00000000": 4004,
      "Ġrot": 4005,
      "Ġsituation": 4006,
      "ĠAb": 4007,
      "ufact": 4008,
      "ĠIS": 4009,
      "ĠHouse": 4010,
      "Ġpurpose": 4011,
      "Ġfederal": 4012,
      "ĠFirst": 4013,
      "Ġhar": 4014,
      "ĊĠĠĠĠĠĠĠĠĠĠĠĠĠ": 4015,
      "^[@": 4016,
      "((": 4017,
      "pril": 4018,
      "index": 4019,
      "Ġenh": 4020,
      "State": 4021,
      "Ġcenter": 4022,
      "Ġheav": 4023,
      "anger": 4024,
      "\"><": 4025,
      "rightarrow": 4026,
      "Ġ29": 4027,
      "Ġbecame": 4028,
      "Ġrelative": 4029,
      "epsilon": 4030,
      "Ġfeed": 4031,
      "Ġpretty": 4032,
      "Time": 4033,
      "Ġspeed": 4034,
      "ĠAmerica": 4035,
      "Ġ2015": 4036,
      "ham": 4037,
      "Ġdeep": 4038,
      "Ġways": 4039,
      "Ġcover": 4040,
      "Ġdirection": 4041,
      "Ġhydro": 4042,
      "âĢĥ": 4043,
      "Ġrele": 4044,
      "ĠChina": 4045,
      "bon": 4046,
      "Ġfinancial": 4047,
      "ĠSch": 4048,
      "ULL": 4049,
      "uel": 4050,
      "ï¼": 4051,
      "igen": 4052,
      "Man": 4053,
      "aily": 4054,
      "Ġfailed": 4055,
      "Ġserious": 4056,
      "Ġfast": 4057,
      "Ġpublished": 4058,
      "ulate": 4059,
      "Cal": 4060,
      "ĠDepartment": 4061,
      "Ġperfect": 4062,
      "New": 4063,
      "Ġrespond": 4064,
      "Ġ);": 4065,
      "Ġpict": 4066,
      "acity": 4067,
      "003": 4068,
      "Ġvers": 4069,
      "lib": 4070,
      "ĠAust": 4071,
      "lock": 4072,
      "varepsilon": 4073,
      "Ġintern": 4074,
      "Omega": 4075,
      "Ġhighly": 4076,
      "\\].": 4077,
      "ports": 4078,
      "['": 4079,
      "Ġwoman": 4080,
      "Ġphen": 4081,
      "Ġprice": 4082,
      "Ġisol": 4083,
      "Ġfindings": 4084,
      "Gamma": 4085,
      "pan": 4086,
      "sing": 4087,
      "reme": 4088,
      "Ġallowed": 4089,
      "bi": 4090,
      "Ġderivative": 4091,
      "Ġsufficient": 4092,
      "Ġselected": 4093,
      "Ġcharge": 4094,
      "ae": 4095,
      "ait": 4096,
      "ĠBar": 4097,
      "ĠĊĠĠĠĠĠĠĠĠĠĠĠĠĠĠĠ": 4098,
      "oding": 4099,
      "Ġnode": 4100,
      "Ġdegree": 4101,
      "base": 4102,
      "Ġcommit": 4103,
      "ĠAug": 4104,
      "aching": 4105,
      "Ġoperation": 4106,
      "rought": 4107,
      "ĉĉĉĉ": 4108,
      "uge": 4109,
      "Ġcomponent": 4110,
      "Ġstar": 4111,
      "izes": 4112,
      "Ġcommand": 4113,
      "Ġcomment": 4114,
      "Ġhor": 4115,
      "ociety": 4116,
      ")$,": 4117,
      "ournal": 4118,
      "Ġstage": 4119,
      "dim": 4120,
      "Ġlarger": 4121,
      "Ġdesigned": 4122,
      "Ġmeasured": 4123,
      "aur": 4124,
      "Ġlabel": 4125,
      "anch": 4126,
      "that": 4127,
      "Ġtradition": 4128,
      "Ġgave": 4129,
      "rael": 4130,
      "Ġjury": 4131,
      "###": 4132,
      "Ġsaf": 4133,
      "mar": 4134,
      "init": 4135,
      "Ġdetails": 4136,
      "Ġgraph": 4137,
      "GF": 4138,
      "ibrary": 4139,
      "oud": 4140,
      "argin": 4141,
      "Class": 4142,
      "PR": 4143,
      "Ġindividuals": 4144,
      "ĠGerm": 4145,
      "Ġsoon": 4146,
      "Ġcampaign": 4147,
      "Ġidentify": 4148,
      "oice": 4149,
      "Ġdraw": 4150,
      "Ġimages": 4151,
      "nb": 4152,
      "Ġeveryone": 4153,
      "ades": 4154,
      "olds": 4155,
      "ĠGeneral": 4156,
      "orem": 4157,
      "Ġsubstant": 4158,
      "Ġcurrently": 4159,
      "haps": 4160,
      "Ġcaused": 4161,
      "Ġfocus": 4162,
      "Ġalone": 4163,
      "PA": 4164,
      "Ġpsych": 4165,
      "Ġauth": 4166,
      "Ġsqu": 4167,
      "ĠAp": 4168,
      "Ġque": 4169,
      "Ġfriends": 4170,
      "ĠSu": 4171,
      "Ġlocation": 4172,
      "fn": 4173,
      "Ġproteins": 4174,
      "Of": 4175,
      "oe": 4176,
      "Ġwasn": 4177,
      "omy": 4178,
      "Ġaud": 4179,
      "Ġvisit": 4180,
      "};": 4181,
      "Ġgives": 4182,
      "Ġ2011": 4183,
      "ĠJune": 4184,
      "BS": 4185,
      "Ġrestr": 4186,
      "aling": 4187,
      "Ġcomponents": 4188,
      "Ġstreng": 4189,
      "ĠJapan": 4190,
      "Ġ[**": 4191,
      "den": 4192,
      "Ġeyes": 4193,
      "TT": 4194,
      "Ġstim": 4195,
      "Ġbank": 4196,
      "Ġfiles": 4197,
      "ĠAlthough": 4198,
      "orage": 4199,
      "Ġ2010": 4200,
      "Ġmatrix": 4201,
      "Ġprofess": 4202,
      "ĠNow": 4203,
      "ouch": 4204,
      "Ġchoice": 4205,
      "fil": 4206,
      "Ġround": 4207,
      "Ġscale": 4208,
      "Ġrequires": 4209,
      "iated": 4210,
      "ocks": 4211,
      "Ġ:=": 4212,
      "NS": 4213,
      "hern": 4214,
      "ĠRepublic": 4215,
      "zz": 4216,
      "exp": 4217,
      "Ġattention": 4218,
      "Ġroad": 4219,
      "Ġfixed": 4220,
      "Ġclust": 4221,
      "operator": 4222,
      "Ġproceed": 4223,
      "ersion": 4224,
      "FL": 4225,
      "section": 4226,
      "Ġpromot": 4227,
      "Ġcompanies": 4228,
      "estern": 4229,
      "Ġfight": 4230,
      "Ġbegan": 4231,
      "Ġknew": 4232,
      "Ġuseful": 4233,
      "ius": 4234,
      "hesis": 4235,
      "aker": 4236,
      "Ġhyper": 4237,
      "call": 4238,
      "iency": 4239,
      "ze": 4240,
      "Ġsynt": 4241,
      "ffer": 4242,
      "Ġleading": 4243,
      "Ġpull": 4244,
      "Ġoptions": 4245,
      "Ġled": 4246,
      "Ġsuit": 4247,
      "Ġbal": 4248,
      "Ġpoor": 4249,
      "Ġ2017": 4250,
      "obile": 4251,
      "semb": 4252,
      "Ġfailure": 4253,
      "oring": 4254,
      "(),": 4255,
      "ĠHealth": 4256,
      "Ġ///": 4257,
      "ÃĹÂ": 4258,
      "---|": 4259,
      "osing": 4260,
      "Ġnotice": 4261,
      "Ġmanagement": 4262,
      "Ġcook": 4263,
      "istry": 4264,
      "Ġ__": 4265,
      "Ġfrequency": 4266,
      "itter": 4267,
      "Ġusers": 4268,
      "Ġdeb": 4269,
      "ĠSer": 4270,
      "Ġthreat": 4271,
      "EC": 4272,
      "Ġbed": 4273,
      "ifically": 4274,
      "active": 4275,
      "Ġ->": 4276,
      "coming": 4277,
      "Ġord": 4278,
      "reen": 4279,
      "ography": 4280,
      "Ġunique": 4281,
      "ken": 4282,
      "cap": 4283,
      "Ġeducation": 4284,
      "rate": 4285,
      "iring": 4286,
      "Path": 4287,
      "Ġcandid": 4288,
      "Do": 4289,
      "ĠSept": 4290,
      "Ġratio": 4291,
      "Ġtechnology": 4292,
      "}_{\\": 4293,
      "irmed": 4294,
      "Ġsche": 4295,
      "čĊĠ": 4296,
      "Ġrecept": 4297,
      "orney": 4298,
      "Sc": 4299,
      "Ġcontains": 4300,
      "tee": 4301,
      "ride": 4302,
      "vis": 4303,
      "Sec": 4304,
      "Ġ\"\"": 4305,
      "Ġemerg": 4306,
      "ĠSen": 4307,
      "Ġson": 4308,
      "ellow": 4309,
      "ĠWar": 4310,
      "Ġdivided": 4311,
      ".*": 4312,
      "cil": 4313,
      "Ġcircum": 4314,
      "omen": 4315,
      "Ġcompletely": 4316,
      "Now": 4317,
      "Ġten": 4318,
      "Ġprime": 4319,
      "Ġexerc": 4320,
      "Ġgoal": 4321,
      "style": 4322,
      "Ġacqu": 4323,
      "Ġcosts": 4324,
      "Ġconnection": 4325,
      "run": 4326,
      "itude": 4327,
      "ifier": 4328,
      "!!": 4329,
      "ĠTH": 4330,
      "Ġsn": 4331,
      "SC": 4332,
      "Ġparts": 4333,
      "Ġlat": 4334,
      "gu": 4335,
      "Ġapply": 4336,
      "Ġbuy": 4337,
      "Ġindustry": 4338,
      "Ġparties": 4339,
      "Ġcentral": 4340,
      "True": 4341,
      ".[": 4342,
      "Ġserver": 4343,
      "Ġneigh": 4344,
      "static": 4345,
      "Ġenjoy": 4346,
      "');": 4347,
      "ĠJanuary": 4348,
      "ube": 4349,
      "known": 4350,
      "UL": 4351,
      "Ġappropriate": 4352,
      "spec": 4353,
      "ĠApril": 4354,
      "Ġearlier": 4355,
      "Ð¾Ð": 4356,
      "Ġfair": 4357,
      "Ġheat": 4358,
      "Ġmulti": 4359,
      "Ġmanufact": 4360,
      "nes": 4361,
      "Ġcyt": 4362,
      "());": 4363,
      "From": 4364,
      "Ġinform": 4365,
      "Ġfine": 4366,
      "Ġexpressed": 4367,
      "Ġoverall": 4368,
      "Ġ\\<": 4369,
      "ĠWest": 4370,
      "efore": 4371,
      "Ġdistance": 4372,
      "Ġpen": 4373,
      "ĠJuly": 4374,
      "band": 4375,
      "Ġtim": 4376,
      "Ġaim": 4377,
      "Ġsupported": 4378,
      "Ġgenerated": 4379,
      "alt": 4380,
      "ĠĠĠĠĠĠĠĠĠĠĠĠĠĠĠĠĠĠĠ": 4381,
      "varphi": 4382,
      "Ġdead": 4383,
      "Ġdefinition": 4384,
      "^+": 4385,
      "ĠGl": 4386,
      "Ġestablished": 4387,
      "Ġ----------------": 4388,
      "Ġstated": 4389,
      "Ġallows": 4390,
      "Ġdog": 4391,
      "Ġ31": 4392,
      "Ġtrack": 4393,
      "ancy": 4394,
      "Ġwidth": 4395,
      "Ġdevices": 4396,
      "OW": 4397,
      "They": 4398,
      "Form": 4399,
      "}.": 4400,
      "Ġequal": 4401,
      "Ġhospital": 4402,
      "Ġbroad": 4403,
      "Ġengine": 4404,
      "lick": 4405,
      "Ġ($": 4406,
      "Over": 4407,
      "Ġeasily": 4408,
      "Ġboard": 4409,
      "Ġheight": 4410,
      "ĠCir": 4411,
      "Ġ<<": 4412,
      "force": 4413,
      "Be": 4414,
      "Ġimm": 4415,
      "Ġsites": 4416,
      "čĊĠĠĠĠĠĠĠ": 4417,
      "ĠJud": 4418,
      "Ġcontaining": 4419,
      "abled": 4420,
      "Ġreasons": 4421,
      "Ġtown": 4422,
      "Ġweb": 4423,
      "cember": 4424,
      "\"/>": 4425,
      "Ġfinding": 4426,
      "ĠBrit": 4427,
      "enses": 4428,
      "df": 4429,
      "ãĢ": 4430,
      "uted": 4431,
      "MP": 4432,
      "Ġ(\\": 4433,
      "Supp": 4434,
      "ĠTrans": 4435,
      "Ġhighest": 4436,
      "Ġcapt": 4437,
      "chi": 4438,
      "Ġcritical": 4439,
      "='": 4440,
      "Ġlocated": 4441,
      "Ġ32": 4442,
      "Ġparameter": 4443,
      "Ġproduced": 4444,
      "eed": 4445,
      "Ġactivities": 4446,
      "Ġdiscl": 4447,
      "Ġleaders": 4448,
      "Ġeconomic": 4449,
      "Ġtumor": 4450,
      "ĠMich": 4451,
      "Ġfather": 4452,
      "overn": 4453,
      "Ġstaff": 4454,
      "urity": 4455,
      "Ġfiled": 4456,
      "Ġtrust": 4457,
      "._": 4458,
      ")-": 4459,
      "Ġreduce": 4460,
      "ica": 4461,
      "Ġrelevant": 4462,
      "ĠFeb": 4463,
      "Ġworth": 4464,
      "overy": 4465,
      "mark": 4466,
      "Ġones": 4467,
      "Sim": 4468,
      "bra": 4469,
      "Ġclearly": 4470,
      "yond": 4471,
      "Ġactual": 4472,
      "ĠIsrael": 4473,
      "DA": 4474,
      "ĠAg": 4475,
      "){#": 4476,
      "Ġchalleng": 4477,
      "vec": 4478,
      "Ġconcept": 4479,
      "Ġauthors": 4480,
      "Ġsympt": 4481,
      "Ġmeaning": 4482,
      "Ġfelt": 4483,
      "Ġmode": 4484,
      "iate": 4485,
      "ĠRed": 4486,
      "ÑĢ": 4487,
      "Ġstore": 4488,
      "bin": 4489,
      "}^{\\": 4490,
      "ios": 4491,
      "title": 4492,
      "Ġvariable": 4493,
      "Ġappeal": 4494,
      "Ġopinion": 4495,
      "Ġnames": 4496,
      "ymbol": 4497,
      "ails": 4498,
      "hand": 4499,
      "ĠStud": 4500,
      "Ġmys": 4501,
      "Ġhit": 4502,
      "king": 4503,
      "SA": 4504,
      "ĠAND": 4505,
      "pid": 4506,
      "ĠSw": 4507,
      "Ġax": 4508,
      "Ġadjust": 4509,
      "ytes": 4510,
      "Ġplant": 4511,
      "Ġles": 4512,
      "Context": 4513,
      "lish": 4514,
      "Ġwriting": 4515,
      "Ġtravel": 4516,
      "Ġliter": 4517,
      "ĠMod": 4518,
      "*-": 4519,
      "bre": 4520,
      "Ġvs": 4521,
      "Ġqual": 4522,
      "ibly": 4523,
      "Ġwebsite": 4524,
      "Size": 4525,
      "Ġsound": 4526,
      "config": 4527,
      "oura": 4528,
      "\\'": 4529,
      "Ġproof": 4530,
      "Ġinjury": 4531,
      "Ġchanged": 4532,
      "Ġbrought": 4533,
      "odies": 4534,
      "Ġdro": 4535,
      "Ġhands": 4536,
      "overline": 4537,
      "Ġshowing": 4538,
      "ĠCons": 4539,
      "ĠĠĠĠĠĠĠĠĠĠĠĠĠĠĠĠĠ": 4540,
      "ĠEl": 4541,
      "002": 4542,
      "Ġsmaller": 4543,
      "ĠÃĲ": 4544,
      "related": 4545,
      "color": 4546,
      "Ġreceive": 4547,
      "Ġmid": 4548,
      "';": 4549,
      "ovember": 4550,
      "Ġgoes": 4551,
      "Ġdoor": 4552,
      "Ġuses": 4553,
      "cluded": 4554,
      "Ġexperiments": 4555,
      "fort": 4556,
      "*.": 4557,
      "Ġdark": 4558,
      "Ġlearning": 4559,
      "Ġ2008": 4560,
      "Ġtransition": 4561,
      "Ġcontrast": 4562,
      "Ġappears": 4563,
      "Ġrules": 4564,
      "operatorname": 4565,
      "Ġhon": 4566,
      "font": 4567,
      "Ġitems": 4568,
      "langle": 4569,
      "Ġelectro": 4570,
      "Ġvector": 4571,
      "Ġ35": 4572,
      "men": 4573,
      "Ġlooks": 4574,
      "Ġbeyond": 4575,
      "Ġheard": 4576,
      "Ġmer": 4577,
      "Ġeffic": 4578,
      "Ġdu": 4579,
      "Ġremains": 4580,
      "Ġculture": 4581,
      "Ġcomputer": 4582,
      "ATE": 4583,
      "arter": 4584,
      "Ġcounsel": 4585,
      "':": 4586,
      "Ð½": 4587,
      "Ġbuilt": 4588,
      "After": 4589,
      "Ġaw": 4590,
      "Ġfat": 4591,
      "âĶ": 4592,
      "Ġutil": 4593,
      "Ġfa": 4594,
      "Ġunderstanding": 4595,
      "la": 4596,
      "Ġhearing": 4597,
      "ĠCong": 4598,
      "Ġnumer": 4599,
      "Ġrelig": 4600,
      "Ġinterpret": 4601,
      "rum": 4602,
      "Ġbeaut": 4603,
      "ĠGet": 4604,
      "ashington": 4605,
      "Ġadvant": 4606,
      "raz": 4607,
      "Ġlooked": 4608,
      "room": 4609,
      "Ġturned": 4610,
      "Ġroot": 4611,
      "Ġalgorith": 4612,
      "Ġsecret": 4613,
      "attle": 4614,
      "Ġcarry": 4615,
      "rier": 4616,
      "Ġworked": 4617,
      "Ġinn": 4618,
      "Ġtowards": 4619,
      "Ġwonder": 4620,
      "rence": 4621,
      "opl": 4622,
      "Ġsurpr": 4623,
      "Ġmajority": 4624,
      "Ġtransport": 4625,
      "Ġprefer": 4626,
      "Ġextract": 4627,
      "ĠGr": 4628,
      "ĠFrom": 4629,
      "Ġplease": 4630,
      "Ġbinding": 4631,
      "works": 4632,
      "Ġregarding": 4633,
      "inct": 4634,
      "Ġvariables": 4635,
      "Info": 4636,
      "Ġinternal": 4637,
      "Ġproduce": 4638,
      "Ġdecided": 4639,
      "ĠPublic": 4640,
      "Ñģ": 4641,
      "utive": 4642,
      "lamm": 4643,
      "input": 4644,
      "Ġskin": 4645,
      "ille": 4646,
      ")).": 4647,
      "Ġexists": 4648,
      "Ġsomet": 4649,
      "osite": 4650,
      "Ġtherapy": 4651,
      "Ġbenefits": 4652,
      "Ġconnect": 4653,
      "ights": 4654,
      "Ġdrive": 4655,
      "Ġfully": 4656,
      "Ġlov": 4657,
      "RA": 4658,
      "Ġconcentration": 4659,
      "ĠDistrict": 4660,
      "Ġcontribut": 4661,
      "\":\"": 4662,
      "Ġtissue": 4663,
      "grams": 4664,
      "Ġcounter": 4665,
      "Ġsubsequ": 4666,
      "Ġbirth": 4667,
      "Ġrepl": 4668,
      "ĠArt": 4669,
      "Ġparents": 4670,
      "Ġeight": 4671,
      "Ġreports": 4672,
      "Ġtask": 4673,
      "Ġmilitary": 4674,
      "ĠSy": 4675,
      "Config": 4676,
      "Ġgun": 4677,
      "Ġsold": 4678,
      "cules": 4679,
      "Ġresulting": 4680,
      "Ġcool": 4681,
      "ĠAugust": 4682,
      "Ġprogress": 4683,
      "icted": 4684,
      "Ġ2009": 4685,
      "Ġprop": 4686,
      "Ġ^": 4687,
      "lo": 4688,
      ")^": 4689,
      "rag": 4690,
      "pective": 4691,
      "^{(": 4692,
      "oses": 4693,
      "Ġexactly": 4694,
      "oken": 4695,
      "inst": 4696,
      "irt": 4697,
      "Ġcouple": 4698,
      "Ġyield": 4699,
      "ĠSchool": 4700,
      "java": 4701,
      "Ġindicated": 4702,
      "Ġvirt": 4703,
      "node": 4704,
      "Ġinfection": 4705,
      "Ġlinear": 4706,
      ")**": 4707,
      "unk": 4708,
      "free": 4709,
      "Ġsetting": 4710,
      "Ġmedium": 4711,
      "======": 4712,
      "Ġwrote": 4713,
      "ĠOctober": 4714,
      "eah": 4715,
      "}}(": 4716,
      "stream": 4717,
      "Ġandroid": 4718,
      "Ġinteresting": 4719,
      "Ġmorning": 4720,
      "ĊĊĠĠĠĠĠĠĠĠĠĠĠ": 4721,
      "Ġox": 4722,
      "asis": 4723,
      "Ab": 4724,
      "enge": 4725,
      "ĠAccording": 4726,
      "geq": 4727,
      "Ġmount": 4728,
      "Ġmaterials": 4729,
      "pol": 4730,
      "count": 4731,
      "Ġreading": 4732,
      "Ġvehicle": 4733,
      "Ġconsequ": 4734,
      "Ġplayed": 4735,
      "Ġfeature": 4736,
      "\\<": 4737,
      "gy": 4738,
      "Ġscore": 4739,
      "ĠSeptember": 4740,
      "nbsp": 4741,
      "Ġobvious": 4742,
      "undred": 4743,
      "Ġcam": 4744,
      "}}_": 4745,
      "Ġsolid": 4746,
      "PC": 4747,
      "Ġinterview": 4748,
      "Ġmeeting": 4749,
      "db": 4750,
      "Ġgets": 4751,
      "ares": 4752,
      "ĠDecember": 4753,
      "Ġcolumn": 4754,
      "ĠAfric": 4755,
      "Ġseparate": 4756,
      "asm": 4757,
      "Ġreasonable": 4758,
      "material": 4759,
      "itro": 4760,
      "icip": 4761,
      "ford": 4762,
      "athe": 4763,
      ">>": 4764,
      "Ġdefine": 4765,
      "\\,": 4766,
      "ls": 4767,
      "Ġreaction": 4768,
      "iforn": 4769,
      "Ġplayer": 4770,
      "Ġconstruction": 4771,
      "Event": 4772,
      "Ġfields": 4773,
      "icit": 4774,
      "ĠLa": 4775,
      "Ġ2018": 4776,
      "Ġapplications": 4777,
      "Ġstarting": 4778,
      "tered": 4779,
      "Ġzero": 4780,
      "Ġarrest": 4781,
      "frak": 4782,
      "Ġsec": 4783,
      "ME": 4784,
      "iday": 4785,
      "Ġpul": 4786,
      "ĠDemocr": 4787,
      "adem": 4788,
      "Ġmaximum": 4789,
      "Ġthroughout": 4790,
      "Ġliqu": 4791,
      "gs": 4792,
      "ql": 4793,
      "Ġparticipants": 4794,
      "arest": 4795,
      "Exp": 4796,
      "ico": 4797,
      "rab": 4798,
      "anged": 4799,
      "Ġvolume": 4800,
      "Ġnoted": 4801,
      "erate": 4802,
      "Ġdamage": 4803,
      "Ġprocesses": 4804,
      "Ġregions": 4805,
      "Ġdomain": 4806,
      "Out": 4807,
      "cos": 4808,
      "Ġformation": 4809,
      "Ġcollect": 4810,
      "Ct": 4811,
      "iences": 4812,
      "Ġconnected": 4813,
      "case": 4814,
      "Ġclosed": 4815,
      "Ġrob": 4816,
      "Ġsafety": 4817,
      "Ġfix": 4818,
      "ĠData": 4819,
      "Ġlives": 4820,
      "start": 4821,
      "Ġinstit": 4822,
      "Ġabsol": 4823,
      "Ġnor": 4824,
      "Ġbecomes": 4825,
      "Ġformed": 4826,
      "omic": 4827,
      "ĠChe": 4828,
      "Ġfit": 4829,
      "Ġarch": 4830,
      "grad": 4831,
      "Ġsources": 4832,
      "Ġslight": 4833,
      "erved": 4834,
      "irit": 4835,
      "Ġadministration": 4836,
      "ĠBecause": 4837,
      "Ġaspect": 4838,
      "true": 4839,
      "Ġhear": 4840,
      "ĠSub": 4841,
      "ruary": 4842,
      "Ġlay": 4843,
      "Ġsafe": 4844,
      "Ġrevealed": 4845,
      "Ġcoord": 4846,
      "gery": 4847,
      "Ġinternational": 4848,
      "Ġstru": 4849,
      "Ġinteraction": 4850,
      "Ġstd": 4851,
      "ĠChar": 4852,
      "ĠÃĹ": 4853,
      "------": 4854,
      "Ġcit": 4855,
      "Ġswe": 4856,
      "]:": 4857,
      "VER": 4858,
      "ĠSection": 4859,
      "Ġtransform": 4860,
      "ida": 4861,
      "Ġcollection": 4862,
      "Ġotherwise": 4863,
      "ESS": 4864,
      "Ġbasic": 4865,
      "Ġtests": 4866,
      "cons": 4867,
      "Ġreflect": 4868,
      "Sub": 4869,
      "HT": 4870,
      "Ġlaws": 4871,
      "was": 4872,
      "mail": 4873,
      "Ġeth": 4874,
      "urt": 4875,
      "ifornia": 4876,
      "ĠNovember": 4877,
      "Ġimmediately": 4878,
      "info": 4879,
      "BA": 4880,
      "Ġter": 4881,
      "Ġmess": 4882,
      "Ġequation": 4883,
      "Ġdemand": 4884,
      "Ġ/**": 4885,
      "ĠMoreover": 4886,
      "Ġpopular": 4887,
      "RT": 4888,
      "Ġscient": 4889,
      "ameter": 4890,
      "conne": 4891,
      "otal": 4892,
      "wid": 4893,
      "ĠCenter": 4894,
      "which": 4895,
      "image": 4896,
      "Ġign": 4897,
      "Ġvictim": 4898,
      "Ġreduction": 4899,
      "Ġactions": 4900,
      "Ġreleased": 4901,
      "ĠIL": 4902,
      "Ġ80": 4903,
      "atur": 4904,
      "Ġthous": 4905,
      "Ġhous": 4906,
      "ĠUSA": 4907,
      "amin": 4908,
      "pling": 4909,
      "ANT": 4910,
      "Ġer": 4911,
      "Ġopportunity": 4912,
      ".\\": 4913,
      "Ġtoward": 4914,
      "cles": 4915,
      "ĠDet": 4916,
      "iance": 4917,
      "Ġpaid": 4918,
      "Ġmort": 4919,
      "Ġinfluence": 4920,
      "Ġmechanism": 4921,
      "Ġgiving": 4922,
      "EST": 4923,
      "ĠID": 4924,
      "ĠSan": 4925,
      "CS": 4926,
      "Ġremember": 4927,
      "Ġroll": 4928,
      "ĠWashington": 4929,
      "']": 4930,
      "Ġwide": 4931,
      "ĠCoun": 4932,
      "bur": 4933,
      "ounced": 4934,
      "long": 4935,
      "ĠOf": 4936,
      "Ġ90": 4937,
      "Big": 4938,
      "CP": 4939,
      "board": 4940,
      "Ġmetab": 4941,
      "Ġconsistent": 4942,
      "Ġcombination": 4943,
      "imony": 4944,
      "Ġfigure": 4945,
      "Ġtesting": 4946,
      "Ġsleep": 4947,
      "sembly": 4948,
      "Ġdefense": 4949,
      "Ġult": 4950,
      "Ġspeak": 4951,
      "ĠPark": 4952,
      "php": 4953,
      "ĠBr": 4954,
      "Ġrelatively": 4955,
      "Ġ]": 4956,
      "ĠCommission": 4957,
      "########": 4958,
      "Ġwild": 4959,
      "mathfrak": 4960,
      "raint": 4961,
      "Ġensure": 4962,
      "Ġsometimes": 4963,
      "CO": 4964,
      "ĠDis": 4965,
      "ael": 4966,
      "alle": 4967,
      "Ġresources": 4968,
      "ĠMark": 4969,
      "cin": 4970,
      "Ġphosph": 4971,
      "Ġresistance": 4972,
      "Ġforms": 4973,
      "False": 4974,
      "Here": 4975,
      "Ġcapital": 4976,
      "Ġmur": 4977,
      "Ġphone": 4978,
      "ctors": 4979,
      "Ġyes": 4980,
      "ĠHigh": 4981,
      "Ġquickly": 4982,
      "Ġfunctional": 4983,
      "Ġclient": 4984,
      "zym": 4985,
      "Ġaware": 4986,
      "object": 4987,
      "Ġmiddle": 4988,
      "Ġthinking": 4989,
      "tem": 4990,
      "ĠAD": 4991,
      "RI": 4992,
      "ny": 4993,
      "Ġalleged": 4994,
      "Ġchance": 4995,
      "check": 4996,
      "Node": 4997,
      "iful": 4998,
      "Ġstrength": 4999,
      "ĠPM": 5000,
      "Ġspin": 5001,
      "âĶĢ": 5002,
      "Ġ(**": 5003,
      "Ġmyself": 5004,
      "enty": 5005,
      "ĠAng": 5006,
      "Ġprocedure": 5007,
      "Ġgreen": 5008,
      "Ġhappen": 5009,
      "ĠRec": 5010,
      "INT": 5011,
      "stitute": 5012,
      "Ġplaying": 5013,
      "Ġmembr": 5014,
      "[]": 5015,
      "Ġnearly": 5016,
      "Ġchoose": 5017,
      "ĠTable": 5018,
      "Ġremove": 5019,
      "ĠInst": 5020,
      "Ġportion": 5021,
      "Ġswitch": 5022,
      "Ġproviding": 5023,
      "Ġmovement": 5024,
      "Ġneut": 5025,
      "Ġmoved": 5026,
      "uffer": 5027,
      "Ġenter": 5028,
      "Ġdetected": 5029,
      "ilies": 5030,
      "ponent": 5031,
      "Ġhappened": 5032,
      "aste": 5033,
      "Ġconducted": 5034,
      "Ġdatabase": 5035,
      "Ġbottom": 5036,
      "Ġachieve": 5037,
      "Ġblog": 5038,
      "PD": 5039,
      "Ġmoving": 5040,
      "ĠTw": 5041,
      "Ġlegis": 5042,
      "Ġexisting": 5043,
      "Ġcore": 5044,
      "Ġstation": 5045,
      "ooth": 5046,
      "Ġobjects": 5047,
      "pc": 5048,
      "Ġ~": 5049,
      "ky": 5050,
      "poses": 5051,
      "Ġmal": 5052,
      "[^": 5053,
      "Ġestablish": 5054,
      "iform": 5055,
      "Ġbrief": 5056,
      "Ġmusic": 5057,
      "Ġcomplic": 5058,
      "Field": 5059,
      "Ġready": 5060,
      "Ġchannel": 5061,
      "ĠNet": 5062,
      "EE": 5063,
      "Ġcircumst": 5064,
      "Ġreach": 5065,
      "Map": 5066,
      "eria": 5067,
      "Inst": 5068,
      "Ġcommer": 5069,
      "iques": 5070,
      "Ġhundred": 5071,
      "Ġequival": 5072,
      "FA": 5073,
      "Ġlif": 5074,
      "Ġdaily": 5075,
      "Ġsteps": 5076,
      "ĊĊĠĠĠĠĠ": 5077,
      "500": 5078,
      "ensions": 5079,
      "ĠAustral": 5080,
      "Ġcalculated": 5081,
      "jection": 5082,
      "Ġfacts": 5083,
      "ĠObama": 5084,
      "Ġcircuit": 5085,
      "Fr": 5086,
      "Ġanalys": 5087,
      "Oh": 5088,
      "Ġincor": 5089,
      "Ġfinally": 5090,
      "Index": 5091,
      "Ġanimals": 5092,
      "lication": 5093,
      "Ġconcentr": 5094,
      "\\],": 5095,
      "Ġindicate": 5096,
      "iable": 5097,
      "Ġyourself": 5098,
      "oto": 5099,
      "Ġdemonstrated": 5100,
      "endant": 5101,
      "Trans": 5102,
      "Ġnearest": 5103,
      "Ġemail": 5104,
      "ĠFl": 5105,
      "Ġil": 5106,
      "Ġexhib": 5107,
      "airs": 5108,
      "level": 5109,
      "ett": 5110,
      "ĠList": 5111,
      "pir": 5112,
      "Up": 5113,
      "ĠHol": 5114,
      "ĠĠĠĠĠĠĠĠĠĠĠĠĠĠĠĠĠĠ": 5115,
      "encing": 5116,
      "parent": 5117,
      "Ġunits": 5118,
      "%,": 5119,
      "flow": 5120,
      "())": 5121,
      "vest": 5122,
      "\"},": 5123,
      "Ġcomments": 5124,
      "ĠAlso": 5125,
      "itors": 5126,
      "omin": 5127,
      "},\\": 5128,
      "Ġprove": 5129,
      "ĠSec": 5130,
      "thon": 5131,
      "ĠTex": 5132,
      "Ġupper": 5133,
      "Ġcrim": 5134,
      "Ġstatist": 5135,
      "ĠNULL": 5136,
      "######": 5137,
      "Ġwave": 5138,
      "Ġregul": 5139,
      "Equ": 5140,
      "Ġband": 5141,
      "Ġtrade": 5142,
      "Ġjur": 5143,
      "ĠAM": 5144,
      "can": 5145,
      "atin": 5146,
      "rome": 5147,
      "Ġcapacity": 5148,
      "Me": 5149,
      "Fl": 5150,
      "ĠCalifornia": 5151,
      "Ġcarried": 5152,
      "CON": 5153,
      "Ġremoved": 5154,
      "ĠAdd": 5155,
      "Ġpetition": 5156,
      "uced": 5157,
      "Ġdoc": 5158,
      "soft": 5159,
      "Ġplaced": 5160,
      "Ġbacter": 5161,
      "indows": 5162,
      "Ġborder": 5163,
      "Ġseven": 5164,
      "Ġsend": 5165,
      "ĠRev": 5166,
      "Ġprocessing": 5167,
      "under": 5168,
      "ĠKing": 5169,
      "ocket": 5170,
      "rees": 5171,
      "Ġpow": 5172,
      "Ġfear": 5173,
      "Ġstuff": 5174,
      "oz": 5175,
      "Ġvariety": 5176,
      "Ġcivil": 5177,
      "Ġblue": 5178,
      "Ġ37": 5179,
      "ui": 5180,
      "Ġweak": 5181,
      "ĠLaw": 5182,
      "FT": 5183,
      "Ġwitness": 5184,
      "otype": 5185,
      "Ġsets": 5186,
      "---|---|": 5187,
      "Ġshape": 5188,
      "Ġwife": 5189,
      "aught": 5190,
      "atever": 5191,
      "ÃŃ": 5192,
      "GL": 5193,
      "iers": 5194,
      "Ġ45": 5195,
      "igation": 5196,
      "ĠHer": 5197,
      "ĠCO": 5198,
      "Ġscreen": 5199,
      "Ġoperator": 5200,
      "IB": 5201,
      "ĠOther": 5202,
      "Ġdistributed": 5203,
      "Ġbenefit": 5204,
      "Ġextrem": 5205,
      "*(": 5206,
      "ĠFebruary": 5207,
      "stitution": 5208,
      "ĠAT": 5209,
      "Ġselection": 5210,
      "Ġcert": 5211,
      "Ġmg": 5212,
      "urrent": 5213,
      "Ã³": 5214,
      "Ġ2007": 5215,
      "ĠHam": 5216,
      "Ser": 5217,
      "pected": 5218,
      "Ġlabor": 5219,
      "Ġsuggested": 5220,
      "uty": 5221,
      "umin": 5222,
      "Ġrow": 5223,
      "Ġpeak": 5224,
      "Ġmachine": 5225,
      "coh": 5226,
      "olved": 5227,
      "ipe": 5228,
      "dered": 5229,
      "acing": 5230,
      "Ġonto": 5231,
      "iment": 5232,
      "LA": 5233,
      "Ġtruth": 5234,
      "Ġrecommend": 5235,
      "\",\"": 5236,
      "ĠFigure": 5237,
      "Ġnamed": 5238,
      "ĠEven": 5239,
      "Ġrace": 5240,
      ",-": 5241,
      "Ġprem": 5242,
      "]\\],": 5243,
      "orb": 5244,
      "space": 5245,
      "Ġapparent": 5246,
      "roy": 5247,
      "Ġprograms": 5248,
      "Color": 5249,
      "Ġimag": 5250,
      "num": 5251,
      "circ": 5252,
      "DS": 5253,
      "well": 5254,
      "IA": 5255,
      "apping": 5256,
      "Code": 5257,
      "Ġcomparison": 5258,
      "Log": 5259,
      "Array": 5260,
      "Ġworkers": 5261,
      "icity": 5262,
      "Hand": 5263,
      "uman": 5264,
      "othe": 5265,
      "Ġhealthy": 5266,
      "/(-": 5267,
      "Ġconflic": 5268,
      "UM": 5269,
      "Ġnation": 5270,
      "Ġplatform": 5271,
      "Ġincreases": 5272,
      "atically": 5273,
      "md": 5274,
      "Ġmagnetic": 5275,
      "Ġsen": 5276,
      "Ġlib": 5277,
      "Ġsusp": 5278,
      "race": 5279,
      "block": 5280,
      "Ġexposure": 5281,
      "elle": 5282,
      "ĠPal": 5283,
      "Ġnorm": 5284,
      "rie": 5285,
      "ĠAssoci": 5286,
      "ĠEuropean": 5287,
      "Ġpassed": 5288,
      "open": 5289,
      "Ġmaybe": 5290,
      "Date": 5291,
      "Ġletters": 5292,
      "omas": 5293,
      "car": 5294,
      "content": 5295,
      "Ġplaces": 5296,
      "cho": 5297,
      "PT": 5298,
      "Ġresponsible": 5299,
      "Ġvisual": 5300,
      "Ġmeasures": 5301,
      "Ġ\\,": 5302,
      "Ġdiscussed": 5303,
      "Ġreplacement": 5304,
      "ithub": 5305,
      "Rec": 5306,
      "ensional": 5307,
      "berg": 5308,
      "ifying": 5309,
      "Ġupd": 5310,
      "Ġmag": 5311,
      "Ġsave": 5312,
      "Ġcorpor": 5313,
      "Ġapproximately": 5314,
      "build": 5315,
      "ĠWhite": 5316,
      "Ġ95": 5317,
      "Reg": 5318,
      "aughter": 5319,
      "Ġbill": 5320,
      "ondon": 5321,
      "Ġpicked": 5322,
      "ĠIndia": 5323,
      "Ġhair": 5324,
      "Ġletter": 5325,
      "Ġcharacteristics": 5326,
      "Î±": 5327,
      "Ġbul": 5328,
      "Ġincome": 5329,
      "Ġmanner": 5330,
      "ĊĠĠĠĠĠĠĠĠĠĠĠĠĠĠĠĠĠĠĠĠĠĠĠĠĠĠĠ": 5331,
      "kay": 5332,
      "Ġjudge": 5333,
      "Ġemot": 5334,
      "ĠBro": 5335,
      "ĠCON": 5336,
      "Ġsymptoms": 5337,
      "ĠBoard": 5338,
      "dot": 5339,
      "/(": 5340,
      "core": 5341,
      "Ġinsurance": 5342,
      "Ġ70": 5343,
      "pass": 5344,
      "Ġupdate": 5345,
      "url": 5346,
      "source": 5347,
      "[\\": 5348,
      "Att": 5349,
      "di": 5350,
      "Ġfresh": 5351,
      "Ġwid": 5352,
      "ĠPre": 5353,
      "Ġdrugs": 5354,
      "omb": 5355,
      "Ġstructures": 5356,
      "za": 5357,
      "ado": 5358,
      "Ġfib": 5359,
      "ĠFound": 5360,
      "ruit": 5361,
      "Ġadopt": 5362,
      "Ġtalking": 5363,
      "Ġbeginning": 5364,
      "Ġarriv": 5365,
      "Ġunc": 5366,
      "Ġstraight": 5367,
      "Act": 5368,
      "Ġhour": 5369,
      "Ġcontinued": 5370,
      "ĠAut": 5371,
      "ĠResearch": 5372,
      "ĠUK": 5373,
      "Ġshot": 5374,
      "ĠPaul": 5375,
      "Ġmodern": 5376,
      "Ġpanel": 5377,
      "roller": 5378,
      "Ġnut": 5379,
      "Ġunf": 5380,
      "Ġdie": 5381,
      "bm": 5382,
      "Ġdiss": 5383,
      "Ġmale": 5384,
      "Ġtestimony": 5385,
      "itis": 5386,
      "Ġspread": 5387,
      "Ġ36": 5388,
      "Ġassume": 5389,
      "normal": 5390,
      "Ġactivation": 5391,
      "asp": 5392,
      "Ġbud": 5393,
      "Ġri": 5394,
      "Ġsevere": 5395,
      "ara": 5396,
      "izer": 5397,
      "Ġreturned": 5398,
      "ipp": 5399,
      ")/(-": 5400,
      "Ġuns": 5401,
      "Ġtour": 5402,
      "Ġexperiment": 5403,
      "Ġhappy": 5404,
      "Ġadapt": 5405,
      "Ġtend": 5406,
      "Ġedge": 5407,
      "Yes": 5408,
      "ĠĠĠĠĠĠĠĠĠĠĠĠĠĠĠĠĠĠĠĠ": 5409,
      "reate": 5410,
      "ĠFurthermore": 5411,
      "*)": 5412,
      "ĠAc": 5413,
      "Ġmit": 5414,
      "Ġut": 5415,
      "Ġdetection": 5416,
      "ĠRNA": 5417,
      "Image": 5418,
      "Ġscen": 5419,
      "004": 5420,
      "Ġstock": 5421,
      "Ġforeign": 5422,
      "aa": 5423,
      "Ġ});": 5424,
      "Ġbab": 5425,
      "Ġbillion": 5426,
      "Ġtree": 5427,
      "Ġnice": 5428,
      "api": 5429,
      "current": 5430,
      "PO": 5431,
      "Request": 5432,
      "Ġinvestigation": 5433,
      "iled": 5434,
      "''": 5435,
      "ventional": 5436,
      "ĠInter": 5437,
      "create": 5438,
      "idden": 5439,
      "Ġmac": 5440,
      "Ġdelay": 5441,
      "Ġchemical": 5442,
      "Ġaward": 5443,
      "Dis": 5444,
      "oul": 5445,
      "Ġexpand": 5446,
      "ĠMus": 5447,
      "*]{}": 5448,
      "Ġthrow": 5449,
      "Ġkids": 5450,
      "Î²": 5451,
      "arr": 5452,
      "Ġrout": 5453,
      "host": 5454,
      "Ġscript": 5455,
      "ync": 5456,
      "Ġfilter": 5457,
      "ART": 5458,
      "Ġ48": 5459,
      "Ġdescription": 5460,
      "Ġtherm": 5461,
      "ĠGovern": 5462,
      "arian": 5463,
      "ÂŃ": 5464,
      "gar": 5465,
      "ptr": 5466,
      "Count": 5467,
      "Ġ((": 5468,
      "Ġclub": 5469,
      "asion": 5470,
      "post": 5471,
      "ĠJe": 5472,
      "Ġexercise": 5473,
      "rench": 5474,
      "istant": 5475,
      "untu": 5476,
      "ĠDavid": 5477,
      "Ġexception": 5478,
      "ĠEnglish": 5479,
      "Ġneur": 5480,
      "ĠIll": 5481,
      "EG": 5482,
      "âĶĢâĶĢ": 5483,
      "Ġrapid": 5484,
      "ĠTest": 5485,
      "ĠAtt": 5486,
      "ria": 5487,
      "Ġsexual": 5488,
      "ĠMor": 5489,
      "Ġinterface": 5490,
      "Ġshift": 5491,
      "Ġspent": 5492,
      "yst": 5493,
      "Ġspecifically": 5494,
      "Ġinsert": 5495,
      "Ġdenied": 5496,
      "Ġchallenge": 5497,
      "Ġplans": 5498,
      "Ġsurgery": 5499,
      "ĠTO": 5500,
      "orter": 5501,
      "Ġsell": 5502,
      "Ġfamilies": 5503,
      "XX": 5504,
      "abs": 5505,
      "Ġstrategy": 5506,
      "frame": 5507,
      "Ġliquid": 5508,
      "CF": 5509,
      "Ġsolutions": 5510,
      "Ġalternative": 5511,
      "Ġserve": 5512,
      "Model": 5513,
      "ĠCongress": 5514,
      "Inter": 5515,
      ":\"": 5516,
      "Ġshoot": 5517,
      "xx": 5518,
      "ĠWilli": 5519,
      "Ġtested": 5520,
      "Ġcomplaint": 5521,
      "going": 5522,
      "Ġwait": 5523,
      "Ġrul": 5524,
      "Ġofficials": 5525,
      "Ġ2000": 5526,
      "âĢ¢": 5527,
      "Build": 5528,
      "Ġcareer": 5529,
      "arant": 5530,
      "ario": 5531,
      "Ġcouldn": 5532,
      "Ġsummary": 5533,
      "Ġwants": 5534,
      "Ġsto": 5535,
      "Ġmentioned": 5536,
      "ALL": 5537,
      "rav": 5538,
      "ldots": 5539,
      "Ġelection": 5540,
      "Ġtouch": 5541,
      "ĠInternational": 5542,
      "ignment": 5543,
      "Ġarm": 5544,
      "Ġ2006": 5545,
      "Ġnovel": 5546,
      "ĠOff": 5547,
      "User": 5548,
      "Ġpark": 5549,
      "icks": 5550,
      "icial": 5551,
      "iced": 5552,
      "Ġprepared": 5553,
      "Â¾": 5554,
      "Ġnil": 5555,
      "QL": 5556,
      "rary": 5557,
      "çļ": 5558,
      "Ġ(!": 5559,
      "orge": 5560,
      "PP": 5561,
      "Ġclick": 5562,
      "Ġleads": 5563,
      "Ġdespite": 5564,
      "Ġoptim": 5565,
      "Ġthick": 5566,
      "abil": 5567,
      "ellig": 5568,
      "Ġmill": 5569,
      "Ġstudent": 5570,
      "rely": 5571,
      "Ġunless": 5572,
      "igration": 5573,
      "Ġdebt": 5574,
      "Ġhypot": 5575,
      "Ġagent": 5576,
      "olean": 5577,
      "Ġfemale": 5578,
      "Ġlip": 5579,
      "mand": 5580,
      "SH": 5581,
      "Ġcycle": 5582,
      "ota": 5583,
      "Ġstudied": 5584,
      "Ġnone": 5585,
      "ipment": 5586,
      "çļĦ": 5587,
      "Ġkill": 5588,
      "Ġimproved": 5589,
      "Ġplate": 5590,
      "%%": 5591,
      "Ġsup": 5592,
      "Ġnuclear": 5593,
      "Ġdiet": 5594,
      "MO": 5595,
      "Ġtypically": 5596,
      "Ġpush": 5597,
      "Ġcombined": 5598,
      "iders": 5599,
      "AV": 5600,
      "ingu": 5601,
      "ptions": 5602,
      "Ġexplain": 5603,
      "Ġmetal": 5604,
      "Ġeye": 5605,
      "upreme": 5606,
      "âĢ²": 5607,
      "({\\": 5608,
      "actory": 5609,
      "cs": 5610,
      "len": 5611,
      "Ġexperimental": 5612,
      "Phi": 5613,
      "aser": 5614,
      "Ġgrowing": 5615,
      "itz": 5616,
      "fected": 5617,
      "/**": 5618,
      "Ġcontrols": 5619,
      "Ġplus": 5620,
      "Ġded": 5621,
      "Ġentry": 5622,
      "Ġcommunication": 5623,
      "Ġ-->": 5624,
      "Ġsuccessful": 5625,
      "Ass": 5626,
      "Ġminimum": 5627,
      "Ġhop": 5628,
      "Ġvote": 5629,
      "Ġ(\"": 5630,
      "ĠSupp": 5631,
      "ascular": 5632,
      "Ġsurvival": 5633,
      "itivity": 5634,
      "enced": 5635,
      "Ġune": 5636,
      "Well": 5637,
      "iling": 5638,
      "Ġmodule": 5639,
      "ano": 5640,
      "ĠĠĠĠĠĠĠĠĠĠĠĠĠĠĠĠĠĠĠĠĠ": 5641,
      "Calculate": 5642,
      "Ġcommercial": 5643,
      "inese": 5644,
      "Ġconfirmed": 5645,
      "Ġdanger": 5646,
      "stract": 5647,
      "Ġsubstr": 5648,
      "005": 5649,
      "ded": 5650,
      "idel": 5651,
      "Ġkilled": 5652,
      "Âµ": 5653,
      "à¸": 5654,
      "ĠÎ¼": 5655,
      "dict": 5656,
      "ĠYour": 5657,
      "ĠDon": 5658,
      "produ": 5659,
      "inner": 5660,
      "ĠIndian": 5661,
      "Ġmolecular": 5662,
      "Ġguy": 5663,
      "**)": 5664,
      "Ġcircumstances": 5665,
      "osen": 5666,
      "Ġinduced": 5667,
      "Ġsociety": 5668,
      "ĊĊĉ": 5669,
      "Ġpiece": 5670,
      "Ġmotor": 5671,
      "ĠCH": 5672,
      "Ġperhaps": 5673,
      "ÂłÂłÂłÂł": 5674,
      "Ġvac": 5675,
      "Ġagreed": 5676,
      "Ġmonitor": 5677,
      "Ġdismiss": 5678,
      "Ġhttps": 5679,
      "Ġencoura": 5680,
      "Ġraised": 5681,
      "Ġpackage": 5682,
      "Ġ33": 5683,
      "Ġoperations": 5684,
      "ingly": 5685,
      "Ġseed": 5686,
      "Ġelectr": 5687,
      "anned": 5688,
      "github": 5689,
      "Ġanalyzed": 5690,
      "ato": 5691,
      "Ġprotocol": 5692,
      "Ġprofessional": 5693,
      "&\\": 5694,
      "RS": 5695,
      "Why": 5696,
      "Ġillust": 5697,
      "inger": 5698,
      "Ġreached": 5699,
      "Ġlinks": 5700,
      "Ġwhereas": 5701,
      "Ġsyn": 5702,
      "Ġcalls": 5703,
      "ban": 5704,
      "Ġaffected": 5705,
      "Can": 5706,
      "Ġdied": 5707,
      "ĠTV": 5708,
      "Ġassociation": 5709,
      "Ġtools": 5710,
      "Ġfeet": 5711,
      "Ġcru": 5712,
      "ypes": 5713,
      "otimes": 5714,
      "Ġdrink": 5715,
      "Ġemployees": 5716,
      "ĠCode": 5717,
      "racy": 5718,
      "Ġofficer": 5719,
      "Ġclasses": 5720,
      "ĠBank": 5721,
      "Ġhandle": 5722,
      "kg": 5723,
      "Ġcop": 5724,
      "\"></": 5725,
      "Ġminor": 5726,
      "Ġmm": 5727,
      "ĠDi": 5728,
      "ĠPost": 5729,
      "cher": 5730,
      "rient": 5731,
      "Ġcauses": 5732,
      "Ġevolution": 5733,
      "ferent": 5734,
      "Ġsentence": 5735,
      "izations": 5736,
      "Ġwouldn": 5737,
      "ading": 5738,
      "Ġtrig": 5739,
      "Ġprobability": 5740,
      "oute": 5741,
      "ĠAnt": 5742,
      "bolds": 5743,
      "Ġsun": 5744,
      "Ġtransl": 5745,
      "Ġmedic": 5746,
      "prime": 5747,
      "Ġkept": 5748,
      "Ġsurround": 5749,
      ".](": 5750,
      "^âĪĴ": 5751,
      "Group": 5752,
      "cor": 5753,
      "Ġ34": 5754,
      "ĠNS": 5755,
      "Ġefforts": 5756,
      "Ġsrc": 5757,
      "Ġmental": 5758,
      "acters": 5759,
      "Ġproport": 5760,
      "Ġcollected": 5761,
      "Ġjava": 5762,
      "po": 5763,
      "ĠMost": 5764,
      "BL": 5765,
      "ialog": 5766,
      "actor": 5767,
      "Ġefficient": 5768,
      "Ġtraditional": 5769,
      "ĠNote": 5770,
      "Ġoccurred": 5771,
      "Ġhuge": 5772,
      "Ġmix": 5773,
      "Ġgal": 5774,
      "........": 5775,
      "boldsymbol": 5776,
      "Ent": 5777,
      "Cs": 5778,
      "ira": 5779,
      "Ġcredit": 5780,
      "asma": 5781,
      "Ġcast": 5782,
      "Ġtrou": 5783,
      "Ġcatch": 5784,
      "Service": 5785,
      "Ġconver": 5786,
      "Ġprepar": 5787,
      "wood": 5788,
      "0001": 5789,
      "Element": 5790,
      "Ġintroduced": 5791,
      "Ġrelation": 5792,
      "Our": 5793,
      "Ġfaith": 5794,
      "arth": 5795,
      "ĠPlaintiff": 5796,
      "idem": 5797,
      "Ġdiscussion": 5798,
      "reedom": 5799,
      "subset": 5800,
      "Ġsuggests": 5801,
      "Ġbehavi": 5802,
      "write": 5803,
      "Per": 5804,
      "nam": 5805,
      "local": 5806,
      "Ġsust": 5807,
      "mem": 5808,
      "opyright": 5809,
      "Ġestimated": 5810,
      "Ġcertainly": 5811,
      "Ġenzym": 5812,
      "Rep": 5813,
      "Ġexplained": 5814,
      "ĠNOT": 5815,
      "Ġstorage": 5816,
      "Ġtechniques": 5817,
      "Ġkid": 5818,
      "Ġhistor": 5819,
      "Ġlock": 5820,
      "Ġcorrelation": 5821,
      "While": 5822,
      "ĠSet": 5823,
      "Ġdiagnosis": 5824,
      "ulf": 5825,
      "resents": 5826,
      "pa": 5827,
      "Ġimplic": 5828,
      "Ġstatute": 5829,
      "Lambda": 5830,
      "ometry": 5831,
      "ĠSuper": 5832,
      "ĠLondon": 5833,
      "Ġelectric": 5834,
      "Ġremaining": 5835,
      "ca": 5836,
      "Ġmovie": 5837,
      "Ġprotection": 5838,
      "Ġchrom": 5839,
      "assert": 5840,
      "Ġadvantage": 5841,
      "Ġgone": 5842,
      "uate": 5843,
      "Ġappellant": 5844,
      "page": 5845,
      "ka": 5846,
      "KE": 5847,
      "Ġbeautiful": 5848,
      "Sigma": 5849,
      "Ġinflamm": 5850,
      "cohol": 5851,
      "Ġforces": 5852,
      "appa": 5853,
      "Ġcardi": 5854,
      "Ġcriminal": 5855,
      "Ġalgorithm": 5856,
      "iny": 5857,
      "Ġkin": 5858,
      "Ġchain": 5859,
      "{{": 5860,
      "Ġmist": 5861,
      "ĠRel": 5862,
      "CM": 5863,
      "ographic": 5864,
      "ĠNews": 5865,
      "Ġbuffer": 5866,
      "Ġrequirements": 5867,
      "ĠGroup": 5868,
      "Ġprosec": 5869,
      "Ġbiggest": 5870,
      "Ġ2005": 5871,
      "Ġvoice": 5872,
      "BI": 5873,
      "Ġoccup": 5874,
      "Ġpros": 5875,
      "}}_{": 5876,
      "Message": 5877,
      "dir": 5878,
      "Bl": 5879,
      "itled": 5880,
      "tage": 5881,
      "ship": 5882,
      "doc": 5883,
      "opic": 5884,
      "inity": 5885,
      "Ġabsence": 5886,
      "Ġguess": 5887,
      "Ġrecords": 5888,
      "\\|": 5889,
      "Ġformat": 5890,
      "isation": 5891,
      "Ġgeneration": 5892,
      ".$$": 5893,
      "Ġpun": 5894,
      "Ġtal": 5895,
      "ivery": 5896,
      "Ġfootball": 5897,
      "model": 5898,
      "Ġpicture": 5899,
      "Ġolder": 5900,
      "Pre": 5901,
      "Ġorganization": 5902,
      "Method": 5903,
      "Ġresponses": 5904,
      "what": 5905,
      "Ġdoll": 5906,
      "Ġmissing": 5907,
      "Ġserved": 5908,
      "Ġtempor": 5909,
      "Ġwhom": 5910,
      "Ġcitiz": 5911,
      "ĠBen": 5912,
      "DR": 5913,
      "ĠEm": 5914,
      "Ġadding": 5915,
      "acebook": 5916,
      "Ġoffers": 5917,
      "Ġoptical": 5918,
      "Ġbreast": 5919,
      "ĠEast": 5920,
      "ĠEach": 5921,
      "Ġquantum": 5922,
      "Ġfloor": 5923,
      ")?": 5924,
      "reshold": 5925,
      "Ġderived": 5926,
      "rivate": 5927,
      "Ġeat": 5928,
      "Ġcreating": 5929,
      "Ġmanif": 5930,
      "Ġvan": 5931,
      "First": 5932,
      "greg": 5933,
      "Ġbrother": 5934,
      "ymph": 5935,
      "Ġpolic": 5936,
      "Ġsubjects": 5937,
      "čĊĉ": 5938,
      "Ġscience": 5939,
      "Ġpurposes": 5940,
      "BU": 5941,
      "Ġ42": 5942,
      "Ġ()": 5943,
      "osc": 5944,
      "src": 5945,
      "$(": 5946,
      "Ġvert": 5947,
      "Ġeconomy": 5948,
      "ĠTexas": 5949,
      "Ġexternal": 5950,
      "Aut": 5951,
      "Ġanimal": 5952,
      "det": 5953,
      "ĠĠĠĠĠĠĠĠĠĠĠĠĠĠĠĠĠĠĠĠĠĠĠ": 5954,
      "how": 5955,
      "Ġstream": 5956,
      "older": 5957,
      "Fil": 5958,
      "ologies": 5959,
      "Ġideas": 5960,
      "Ġintended": 5961,
      "}-": 5962,
      "Ġschools": 5963,
      "------------------------------------------------": 5964,
      "istan": 5965,
      "unday": 5966,
      "CI": 5967,
      "allel": 5968,
      "sf": 5969,
      "anging": 5970,
      "Ġauto": 5971,
      "AND": 5972,
      "Ġproperly": 5973,
      "Ġdrop": 5974,
      "Sp": 5975,
      "mmet": 5976,
      "cknow": 5977,
      "Ġrepresents": 5978,
      "ĠBlack": 5979,
      "icrosoft": 5980,
      "induced": 5981,
      "Ġresolution": 5982,
      "nel": 5983,
      "Ġextent": 5984,
      "SI": 5985,
      "default": 5986,
      "Ġjoint": 5987,
      "sole": 5988,
      "Ġglass": 5989,
      "Ġdecreased": 5990,
      "Ġpool": 5991,
      "Ġdirector": 5992,
      "Ġthank": 5993,
      "itory": 5994,
      "Pr": 5995,
      "Ġradio": 5996,
      "Ġsymmet": 5997,
      "mbox": 5998,
      "Ġsummer": 5999,
      "Ġcoe": 6000,
      "Ġconvers": 6001,
      "Co": 6002,
      "NT": 6003,
      "ĠBritish": 6004,
      "result": 6005,
      "specific": 6006,
      "icians": 6007,
      "Ġthread": 6008,
      "Ġ38": 6009,
      "Ġbelong": 6010,
      "zon": 6011,
      "Ġauthority": 6012,
      "Ġcomfort": 6013,
      "Comp": 6014,
      "Ġmechanisms": 6015,
      "nonumber": 6016,
      "ĠSupreme": 6017,
      "eturn": 6018,
      "Ġprotected": 6019,
      "ĠOh": 6020,
      "Â»": 6021,
      "Ġvirus": 6022,
      "Ġearn": 6023,
      "Ġdistinct": 6024,
      "Ġlargest": 6025,
      "Ġsav": 6026,
      "ORT": 6027,
      "Ġsymb": 6028,
      "FI": 6029,
      "ya": 6030,
      "Ġattorney": 6031,
      "Ġexperien": 6032,
      "Ġfeeling": 6033,
      "ĠJew": 6034,
      "Ġgrand": 6035,
      "orry": 6036,
      "esis": 6037,
      "while": 6038,
      "MT": 6039,
      "Ġarbit": 6040,
      "iat": 6041,
      "Ġinterests": 6042,
      "Ġcommunic": 6043,
      "(&": 6044,
      "Ġteams": 6045,
      "ensuremath": 6046,
      "Ġtechnique": 6047,
      "Ġmembrane": 6048,
      "/\\": 6049,
      "Ġofficers": 6050,
      "However": 6051,
      "Ġregist": 6052,
      "sens": 6053,
      "Ġcrime": 6054,
      "_.": 6055,
      "Ġcontained": 6056,
      "aud": 6057,
      "rian": 6058,
      "Ġteac": 6059,
      "rd": 6060,
      "Ġrac": 6061,
      "Ġslightly": 6062,
      "typ": 6063,
      "Ġcat": 6064,
      "Ġdry": 6065,
      "ĠJack": 6066,
      "Ġempt": 6067,
      "Che": 6068,
      "ĠEv": 6069,
      "idge": 6070,
      "Ġloop": 6071,
      "Ġvel": 6072,
      "Ġfirm": 6073,
      "poss": 6074,
      "Box": 6075,
      "Ġgold": 6076,
      "Ġsales": 6077,
      "cks": 6078,
      "uesday": 6079,
      "UE": 6080,
      "Ġstrugg": 6081,
      "ĠGoogle": 6082,
      "Ġdriver": 6083,
      "Ġshared": 6084,
      "Ġvent": 6085,
      "Ġguys": 6086,
      "CG": 6087,
      "Ġbool": 6088,
      "utor": 6089,
      "Ġsitu": 6090,
      "Ġcharged": 6091,
      "onic": 6092,
      "jo": 6093,
      "valid": 6094,
      "func": 6095,
      "pack": 6096,
      "Ġopening": 6097,
      "olar": 6098,
      "Ġcharacters": 6099,
      "etes": 6100,
      "last": 6101,
      "ago": 6102,
      "}}}": 6103,
      "Ġdoubt": 6104,
      "inte": 6105,
      "Ġerrors": 6106,
      "Ġlatest": 6107,
      "orders": 6108,
      "Ġprojects": 6109,
      "ugin": 6110,
      "Ġrise": 6111,
      "********************************": 6112,
      "MR": 6113,
      "Ste": 6114,
      "Ġoffered": 6115,
      "Ġepis": 6116,
      "Â·": 6117,
      "ĠSur": 6118,
      "Ġconventional": 6119,
      "Ġhus": 6120,
      "Ġprison": 6121,
      ".[@": 6122,
      "Line": 6123,
      "ilarly": 6124,
      "Ġholding": 6125,
      "ĠAny": 6126,
      "**]{},": 6127,
      "Ġcoverage": 6128,
      "Ġdra": 6129,
      "Ġannounced": 6130,
      "ĠChinese": 6131,
      "rich": 6132,
      "ĠAL": 6133,
      "ouble": 6134,
      "Ġkit": 6135,
      "oman": 6136,
      "Ġneighbor": 6137,
      "ĠStreet": 6138,
      "ĠFoundation": 6139,
      "Some": 6140,
      "Ġexchange": 6141,
      "Ġhol": 6142,
      "Property": 6143,
      "ĠEq": 6144,
      "hetic": 6145,
      "âĢĿ.": 6146,
      "Ġentered": 6147,
      "Ġconserv": 6148,
      "ĠCanada": 6149,
      "Ġweap": 6150,
      "ĠOver": 6151,
      "Ġgain": 6152,
      "Ġdescribe": 6153,
      "ĠRem": 6154,
      "ĠDan": 6155,
      "Ġagents": 6156,
      "Ġinteractions": 6157,
      "Ġinvolve": 6158,
      "Ġring": 6159,
      "just": 6160,
      "draw": 6161,
      "System": 6162,
      "venue": 6163,
      "ATION": 6164,
      "ĠDE": 6165,
      "ĠRE": 6166,
      "Ġsupply": 6167,
      "illa": 6168,
      "plify": 6169,
      "}}{": 6170,
      "SU": 6171,
      "ename": 6172,
      "See": 6173,
      "Ġrank": 6174,
      "anges": 6175,
      "Ġdecrease": 6176,
      "ariant": 6177,
      "care": 6178,
      "mic": 6179,
      "ĠĠĠĠĠĠĠĠĠĠĠĠĠĠĠĠĠĠĠĠĠĠ": 6180,
      "Ġexpert": 6181,
      "Ġagency": 6182,
      "xml": 6183,
      "ĠCirc": 6184,
      "Ġanalyses": 6185,
      "riage": 6186,
      "Ġdose": 6187,
      "Ġprofile": 6188,
      "Ġcryst": 6189,
      "Ġconcentrations": 6190,
      "ĠCalculate": 6191,
      "abla": 6192,
      "Ġrepeated": 6193,
      "ĠCa": 6194,
      "Ġcomposition": 6195,
      "ĠClass": 6196,
      "({": 6197,
      "Ġwish": 6198,
      "hi": 6199,
      "kin": 6200,
      "Ġsmooth": 6201,
      "ĠGreen": 6202,
      "Ġwind": 6203,
      "Ġoutcome": 6204,
      "Ġviews": 6205,
      "iler": 6206,
      "ĠRober": 6207,
      "ructions": 6208,
      "ĠCouncil": 6209,
      "OG": 6210,
      "\").": 6211,
      "summary": 6212,
      "Call": 6213,
      "âĢĬ": 6214,
      "Â½": 6215,
      "Ġowners": 6216,
      "Ġreceptor": 6217,
      "chen": 6218,
      "lif": 6219,
      "Ref": 6220,
      "Ġneuro": 6221,
      "Ġgenetic": 6222,
      "ĊĊĊĊ": 6223,
      "ansion": 6224,
      "Ġquarter": 6225,
      "čĊĠĠĠĠĠĠĠĠĠĠĠ": 6226,
      "Source": 6227,
      "Ġexistence": 6228,
      "query": 6229,
      "Ġpossibility": 6230,
      "ĠCommun": 6231,
      "Ġcold": 6232,
      "ĠSuch": 6233,
      "Ġplants": 6234,
      "ĠPeople": 6235,
      "Ġelim": 6236,
      "Ġoperating": 6237,
      "ponse": 6238,
      "ĠTwo": 6239,
      "ainer": 6240,
      "Ġ+=": 6241,
      "ĠDirect": 6242,
      "pled": 6243,
      "Ġelectron": 6244,
      "Ġcompleted": 6245,
      "Ġdriving": 6246,
      "Ġtrend": 6247,
      "ĠJames": 6248,
      "Ġreturns": 6249,
      "onald": 6250,
      "Ġ\"[": 6251,
      "Ġcir": 6252,
      "Ġpatterns": 6253,
      "Ġstars": 6254,
      "ini": 6255,
      "Ġinteger": 6256,
      "Ġsignals": 6257,
      "Ġaren": 6258,
      "mittee": 6259,
      "ĠArm": 6260,
      "Ġwhatever": 6261,
      "asks": 6262,
      "ville": 6263,
      "Ġidentity": 6264,
      "Ġheavy": 6265,
      "oted": 6266,
      "OUT": 6267,
      "Ġ2004": 6268,
      "ĠFOR": 6269,
      "child": 6270,
      "ĠĠĠĠĠĠĠĠĠĠĠĠĠĠĠĠĠĠĠĠĠĠĠĠĠĠĠĠĠĠĠĠĠĠĠĠĠĠĠĠĠĠĠĠĠĠĠĠĠĠĠĠĠĠĠĠ": 6271,
      "ĠRich": 6272,
      "Ġdiseases": 6273,
      "tes": 6274,
      "ĠCA": 6275,
      "Ġinterested": 6276,
      "==========": 6277,
      "Ġgenerate": 6278,
      "reated": 6279,
      "Ġ--------": 6280,
      "asc": 6281,
      "pg": 6282,
      "arp": 6283,
      "ITH": 6284,
      "ĠFe": 6285,
      "Ġstable": 6286,
      "Ġlit": 6287,
      "itect": 6288,
      "Ġfinite": 6289,
      "Î¼": 6290,
      "Ġ${": 6291,
      "ĠUnder": 6292,
      "Ġbutton": 6293,
      "Ġmeant": 6294,
      "oom": 6295,
      "Ġpeace": 6296,
      "RL": 6297,
      "ĠFriday": 6298,
      "Ġequivalent": 6299,
      "Ġappeared": 6300,
      "Ġquery": 6301,
      "Ġ};": 6302,
      "Ġequipment": 6303,
      "Ġindicates": 6304,
      "cence": 6305,
      "Ġimportance": 6306,
      "property": 6307,
      "Ġboy": 6308,
      "you": 6309,
      "Ġspectrum": 6310,
      "ĠService": 6311,
      "Ġconfirm": 6312,
      "Ġwel": 6313,
      "rated": 6314,
      "Ġcontrolled": 6315,
      "Ġmobile": 6316,
      "kappa": 6317,
      "Ġcarbon": 6318,
      "widet": 6319,
      "Ġholds": 6320,
      "widetilde": 6321,
      "nabla": 6322,
      "ednes": 6323,
      "Ġconclusion": 6324,
      "Ġsequences": 6325,
      "Ġincorpor": 6326,
      "PH": 6327,
      "amily": 6328,
      "Ġconvert": 6329,
      "Ġruns": 6330,
      "sem": 6331,
      "dt": 6332,
      "Ġdiag": 6333,
      "ba": 6334,
      "dots": 6335,
      "ĠMart": 6336,
      "Ġjuris": 6337,
      "Ġconfiguration": 6338,
      "ĠAddition": 6339,
      "ĠBoth": 6340,
      "Ġnan": 6341,
      "ĠWestern": 6342,
      "Ġhappens": 6343,
      "after": 6344,
      "ĠPD": 6345,
      "ITY": 6346,
      "Ġparticles": 6347,
      "Ġpregn": 6348,
      "NE": 6349,
      "inn": 6350,
      "PI": 6351,
      "ĠKe": 6352,
      "main": 6353,
      "Ġbra": 6354,
      "Ġsecondary": 6355,
      "Ġdefendants": 6356,
      "Ġreality": 6357,
      "xture": 6358,
      "Ġmouse": 6359,
      "ĠTra": 6360,
      "Click": 6361,
      "Ġtox": 6362,
      "})$": 6363,
      "Ġ2019": 6364,
      "jected": 6365,
      "ilit": 6366,
      "Manager": 6367,
      "]),": 6368,
      "ursday": 6369,
      ".</": 6370,
      "amine": 6371,
      "iveness": 6372,
      "web": 6373,
      "Ġmaintain": 6374,
      "ï¼Į": 6375,
      "Ġsuff": 6376,
      "Ġpy": 6377,
      "ĠWell": 6378,
      "Ġcatal": 6379,
      "Any": 6380,
      "Ġreferred": 6381,
      "gebra": 6382,
      "Ġapprec": 6383,
      "Ġmeasurements": 6384,
      "Ġdigital": 6385,
      "ERT": 6386,
      "Ġbow": 6387,
      "ancing": 6388,
      "Ġinstr": 6389,
      "ednesday": 6390,
      "Ġsurvey": 6391,
      "ilos": 6392,
      "cluding": 6393,
      "Ġsession": 6394,
      "Ġ------------": 6395,
      "Ġcontinuous": 6396,
      "Ġtrain": 6397,
      "uries": 6398,
      "Pe": 6399,
      "ston": 6400,
      "Ð°Ð": 6401,
      "eless": 6402,
      "][": 6403,
      "ĠInstitute": 6404,
      "Ċĉĉĉĉĉ": 6405,
      "Ġseemed": 6406,
      "Ġflex": 6407,
      "select": 6408,
      "faces": 6409,
      "Ġcompens": 6410,
      "Ġdeveloping": 6411,
      "101": 6412,
      "ĠIns": 6413,
      "crete": 6414,
      "eric": 6415,
      "ĠOut": 6416,
      "ND": 6417,
      "Ġstatements": 6418,
      "istent": 6419,
      "Ġdisp": 6420,
      "Ġnoise": 6421,
      "2015": 6422,
      "Ġburn": 6423,
      "Ġing": 6424,
      "false": 6425,
      "raction": 6426,
      "Ġfarm": 6427,
      "Ġlibrary": 6428,
      "Ġ500": 6429,
      "Ġalcohol": 6430,
      "ridge": 6431,
      "Ġpure": 6432,
      "hal": 6433,
      "othing": 6434,
      "TO": 6435,
      "icated": 6436,
      "Ġspirit": 6437,
      "inder": 6438,
      "has": 6439,
      "look": 6440,
      "Ġattract": 6441,
      "!--": 6442,
      "Ġdownload": 6443,
      "ĠMonday": 6444,
      "ĠDay": 6445,
      "height": 6446,
      "Ġchronic": 6447,
      "antly": 6448,
      "abilities": 6449,
      "rig": 6450,
      "Ġcateg": 6451,
      "Ġbalance": 6452,
      "ĠSmith": 6453,
      "Ġremainder": 6454,
      "Ġrepresentation": 6455,
      "Ġexcess": 6456,
      "ĠSecond": 6457,
      "ĠTechn": 6458,
      "ady": 6459,
      "rape": 6460,
      "Ġenvironmental": 6461,
      "Ġjobs": 6462,
      "ĠJes": 6463,
      "End": 6464,
      "Ġexcell": 6465,
      "ĠAS": 6466,
      "Ġcollege": 6467,
      "Ġapproved": 6468,
      "ĠAir": 6469,
      "orrow": 6470,
      "Ġdiab": 6471,
      "ocity": 6472,
      "Ġcele": 6473,
      "ĠCompany": 6474,
      "}+": 6475,
      "omorph": 6476,
      "aming": 6477,
      "Ġlatter": 6478,
      "Ġissued": 6479,
      "Ġsho": 6480,
      "Ġliver": 6481,
      "ĠYes": 6482,
      "CK": 6483,
      "ĠDel": 6484,
      "Ġhighlight": 6485,
      "Ġborn": 6486,
      "Ġsquare": 6487,
      "Ġextremely": 6488,
      "ows": 6489,
      "ĠMal": 6490,
      "Ġspeech": 6491,
      "ln": 6492,
      "win": 6493,
      "MI": 6494,
      "Ġknows": 6495,
      "ĠFacebook": 6496,
      "Ġempty": 6497,
      "Ġwarrant": 6498,
      "ĠItal": 6499,
      "Ġhab": 6500,
      "Ġspot": 6501,
      "Ġestimate": 6502,
      "Ġexamples": 6503,
      "Ġpartners": 6504,
      "Ġorigin": 6505,
      "aneous": 6506,
      "Ġleader": 6507,
      "Ġabuse": 6508,
      "Ġcovered": 6509,
      "Ġcharges": 6510,
      "Ġtransmission": 6511,
      "Ġlung": 6512,
      "Don": 6513,
      ")/(": 6514,
      "ĠKore": 6515,
      "Ġserum": 6516,
      "sey": 6517,
      "ĠAre": 6518,
      "Ġahead": 6519,
      "Ġexplicit": 6520,
      "Ġregulation": 6521,
      "lem": 6522,
      "Ġliterature": 6523,
      "ensor": 6524,
      "Ġstre": 6525,
      "house": 6526,
      "ĠMet": 6527,
      "ailed": 6528,
      "ki": 6529,
      "ĠEvery": 6530,
      "Ġsubstantial": 6531,
      ")[": 6532,
      "Ġsigned": 6533,
      "ĠMichael": 6534,
      "Ġopened": 6535,
      "Ġhusband": 6536,
      "rl": 6537,
      "ĠPress": 6538,
      "ĠPort": 6539,
      "apache": 6540,
      "Ġimplementation": 6541,
      "ĠBig": 6542,
      "ias": 6543,
      "Ġterror": 6544,
      "ĠMac": 6545,
      "Ġscene": 6546,
      "ĠFlor": 6547,
      "Ġfluid": 6548,
      "Ġcustomers": 6549,
      "asure": 6550,
      "stein": 6551,
      "ogene": 6552,
      "Ġchurch": 6553,
      "Ġformula": 6554,
      "Ġvill": 6555,
      "ĊĊĠĠĠĠĠĠ": 6556,
      "Ġoccurs": 6557,
      "ytic": 6558,
      "alysis": 6559,
      "ĠTheorem": 6560,
      "According": 6561,
      "Ġplasma": 6562,
      "Ġintent": 6563,
      "ĠMat": 6564,
      "gments": 6565,
      "Ġwood": 6566,
      "Ġrecorded": 6567,
      "Ġdelivery": 6568,
      "Ġcompounds": 6569,
      "aturday": 6570,
      "Ġdecisions": 6571,
      "ĠCR": 6572,
      "ĠER": 6573,
      "ĠChristian": 6574,
      "Ġappar": 6575,
      "ishes": 6576,
      "mt": 6577,
      "Ġcycl": 6578,
      "appro": 6579,
      "hent": 6580,
      "Ġextension": 6581,
      "target": 6582,
      "legal": 6583,
      "Ġreceiving": 6584,
      "Ġevaluated": 6585,
      "$$\\": 6586,
      "Ġassay": 6587,
      "Ġnetworks": 6588,
      "ulin": 6589,
      "Ġinner": 6590,
      "Button": 6591,
      "duc": 6592,
      "Ġallowing": 6593,
      "Ġcalling": 6594,
      "Ġextended": 6595,
      "process": 6596,
      "Ġleaves": 6597,
      "product": 6598,
      "names": 6599,
      "Ġviolence": 6600,
      "lets": 6601,
      "Ġwat": 6602,
      "ĠAmericans": 6603,
      "anes": 6604,
      "ĠMiss": 6605,
      "Ġhaven": 6606,
      "format": 6607,
      "Ġpercentage": 6608,
      "real": 6609,
      "Ġ75": 6610,
      "first": 6611,
      "Ġdigit": 6612,
      "ĠLeg": 6613,
      "Ġoutcomes": 6614,
      "AY": 6615,
      "-------": 6616,
      "itative": 6617,
      "Ġconcerns": 6618,
      "ĠUnion": 6619,
      "Net": 6620,
      "Ġassessment": 6621,
      "**(-": 6622,
      "ĠSunday": 6623,
      "message": 6624,
      "Ġappoint": 6625,
      "Ġsubsequent": 6626,
      "endif": 6627,
      "Ġleaving": 6628,
      "Ġthousands": 6629,
      "ĠFrench": 6630,
      "okes": 6631,
      "ĠCommittee": 6632,
      "bal": 6633,
      "Ġtestified": 6634,
      "Ġhelped": 6635,
      "phone": 6636,
      "oking": 6637,
      "Ġ2003": 6638,
      "Ġmostly": 6639,
      "standing": 6640,
      "sa": 6641,
      "erest": 6642,
      "åı": 6643,
      "IST": 6644,
      "ipped": 6645,
      "Ġarr": 6646,
      "Ġunderlying": 6647,
      "Ġowner": 6648,
      "Ġimmune": 6649,
      "Ġguarant": 6650,
      "Ġarguments": 6651,
      "yr": 6652,
      "ĠLeague": 6653,
      "lands": 6654,
      "Ġsale": 6655,
      "\\{": 6656,
      "Ġefficiency": 6657,
      "oret": 6658,
      "ĠFinally": 6659,
      "elled": 6660,
      "ortunately": 6661,
      "ributes": 6662,
      "omes": 6663,
      "std": 6664,
      "Ġwire": 6665,
      "van": 6666,
      "Ġmuscle": 6667,
      "ups": 6668,
      "ilty": 6669,
      "night": 6670,
      "Pol": 6671,
      "ifications": 6672,
      "ĠWhy": 6673,
      "Ġlymph": 6674,
      "Ġrepresented": 6675,
      "Ext": 6676,
      "edy": 6677,
      "Ġcriteria": 6678,
      "ads": 6679,
      "Ġcentury": 6680,
      "endment": 6681,
      "Ġraise": 6682,
      "Ġuniform": 6683,
      ")=\\": 6684,
      "2013": 6685,
      "server": 6686,
      "=======": 6687,
      "ĠĊĠ": 6688,
      "tex": 6689,
      "Ġgreatest": 6690,
      "author": 6691,
      "Ġexamined": 6692,
      "Back": 6693,
      "Ġmanufacture": 6694,
      "zeta": 6695,
      "ĠCT": 6696,
      "Ġvacc": 6697,
      "ĠJer": 6698,
      "Ġbudget": 6699,
      "sor": 6700,
      "null": 6701,
      "Ġspecified": 6702,
      "Ġlearned": 6703,
      "ĠDuring": 6704,
      "SM": 6705,
      "Ġeventually": 6706,
      ")\"": 6707,
      "ĠUsing": 6708,
      "Ġadult": 6709,
      "2014": 6710,
      "Ġbooks": 6711,
      "rog": 6712,
      "Point": 6713,
      "Ġpowerful": 6714,
      "2016": 6715,
      "Ġdiscrim": 6716,
      "Ġshut": 6717,
      "Ġ39": 6718,
      "Ġcandidate": 6719,
      "edge": 6720,
      "Bar": 6721,
      "yan": 6722,
      "Ġcurve": 6723,
      "omal": 6724,
      "bed": 6725,
      "ostic": 6726,
      "Ġrestaur": 6727,
      "hens": 6728,
      "Ġdepends": 6729,
      "zen": 6730,
      "ĠSun": 6731,
      "Ġlimitations": 6732,
      "ĠLou": 6733,
      "Ġincident": 6734,
      "Ġpositions": 6735,
      ":\\": 6736,
      "ih": 6737,
      "itely": 6738,
      "Ġbeg": 6739,
      "Ġlicense": 6740,
      "ĠWH": 6741,
      "akers": 6742,
      "Ġelev": 6743,
      "Ġconstitution": 6744,
      "ORD": 6745,
      "Ġscheme": 6746,
      "Ġdefect": 6747,
      "Ġsupposed": 6748,
      "Ġplane": 6749,
      "ampions": 6750,
      "Ġvoltage": 6751,
      "Ġ64": 6752,
      "Query": 6753,
      "operative": 6754,
      "Ġinvestigated": 6755,
      ")*(": 6756,
      "Ġvary": 6757,
      "Ġthreshold": 6758,
      "ĠGermany": 6759,
      "These": 6760,
      "ĠJudge": 6761,
      "'.": 6762,
      "-----": 6763,
      "ĠâĢ¦": 6764,
      "ette": 6765,
      "Ġachieved": 6766,
      "ĠIran": 6767,
      "Just": 6768,
      "dem": 6769,
      "SON": 6770,
      "Ġtypical": 6771,
      "?âĢĿ": 6772,
      "ãĢĤ": 6773,
      "ĠIII": 6774,
      "Ġresearc": 6775,
      "Ġwarm": 6776,
      "000000": 6777,
      "Ġpathway": 6778,
      "FFFF": 6779,
      "ĊĠĠĠĠĠĠĠĠĠĠĠĠ": 6780,
      "ĠLem": 6781,
      "isher": 6782,
      "Ġgoals": 6783,
      "Ġgar": 6784,
      "ĠWeb": 6785,
      "Ġpurchase": 6786,
      "ĠScience": 6787,
      "Ġ${{\\": 6788,
      "gt": 6789,
      "Ġmixed": 6790,
      "otes": 6791,
      "Ġchanging": 6792,
      "Ġunivers": 6793,
      "ipal": 6794,
      "Ġpolicies": 6795,
      "ĠNone": 6796,
      "PRO": 6797,
      "Client": 6798,
      "Ġjournal": 6799,
      "Ġ44": 6800,
      "Ġfraction": 6801,
      "iant": 6802,
      "Ġ00": 6803,
      "Ġprocedures": 6804,
      "rowser": 6805,
      "ĠCollege": 6806,
      "Ġstandards": 6807,
      "Ġmetabol": 6808,
      "Ġspring": 6809,
      "dependent": 6810,
      "enu": 6811,
      "olf": 6812,
      "supplementary": 6813,
      "Are": 6814,
      "oday": 6815,
      "Ġrecovery": 6816,
      "Ġflat": 6817,
      "Ġfish": 6818,
      "Ġenforce": 6819,
      "Ġapplicable": 6820,
      "ĠMany": 6821,
      "Ġgranted": 6822,
      "Ġtub": 6823,
      "Ġspend": 6824,
      "Ġfilms": 6825,
      "à¥": 6826,
      "bug": 6827,
      "cp": 6828,
      "dimensional": 6829,
      "Ġtele": 6830,
      "ĠTuesday": 6831,
      "gression": 6832,
      "Then": 6833,
      "Ġ2001": 6834,
      "**]{}": 6835,
      "she": 6836,
      "ella": 6837,
      "gers": 6838,
      "ĠAR": 6839,
      "UD": 6840,
      "CTION": 6841,
      "Ġheter": 6842,
      "Ġacts": 6843,
      "Ġisolated": 6844,
      "Ġinsp": 6845,
      "Ġpert": 6846,
      "ĠGovernment": 6847,
      "law": 6848,
      "Ġflav": 6849,
      "Ġacknow": 6850,
      "ĠBay": 6851,
      "weight": 6852,
      "ASS": 6853,
      "Ġpolar": 6854,
      "dr": 6855,
      "Number": 6856,
      "DB": 6857,
      "Ġgon": 6858,
      "Ġdesired": 6859,
      "FC": 6860,
      "${": 6861,
      "ĠAssociation": 6862,
      "Ġevaluation": 6863,
      "Ġseeing": 6864,
      "aper": 6865,
      "ructure": 6866,
      "isted": 6867,
      "lang": 6868,
      "organ": 6869,
      ",'": 6870,
      "Ġeasier": 6871,
      "riend": 6872,
      "Ġsubstrate": 6873,
      "json": 6874,
      "Ġmanager": 6875,
      "Ġsections": 6876,
      "cf": 6877,
      "Ġindeed": 6878,
      "Ġstrongly": 6879,
      "Ġrelief": 6880,
      "Ġtraffic": 6881,
      "Ġdetailed": 6882,
      "Ġmorph": 6883,
      "Ġfunds": 6884,
      "Ġpaint": 6885,
      "ĠTR": 6886,
      "Ġinvestment": 6887,
      "ipl": 6888,
      "2012": 6889,
      "cel": 6890,
      "Ġbaby": 6891,
      "Ġfuel": 6892,
      ";\\": 6893,
      "aine": 6894,
      "Ġchosen": 6895,
      "Ġfourth": 6896,
      "Ġlab": 6897,
      "Ġfol": 6898,
      "button": 6899,
      "Ġ55": 6900,
      "Ġentitled": 6901,
      "Ġ{{\\": 6902,
      "FS": 6903,
      "Ġmaster": 6904,
      "Stream": 6905,
      "Run": 6906,
      "Ã¶": 6907,
      "Input": 6908,
      "Ã¨": 6909,
      "Ġreplic": 6910,
      "Ġfreedom": 6911,
      "ĠChurch": 6912,
      "Ġcategory": 6913,
      "Ġstored": 6914,
      "Ġrestrict": 6915,
      "ested": 6916,
      "iller": 6917,
      "Ġgly": 6918,
      "jud": 6919,
      "Ġcommitted": 6920,
      "ests": 6921,
      "Gen": 6922,
      "Ġjoin": 6923,
      "Ġaccord": 6924,
      "Ġpropos": 6925,
      "Ġamaz": 6926,
      "}=\\": 6927,
      "Ġdaughter": 6928,
      "Ġcluster": 6929,
      "ĠUp": 6930,
      "ceived": 6931,
      "Ġrevers": 6932,
      "////////////////": 6933,
      "Ġduty": 6934,
      "Ġconclude": 6935,
      "Ġconsidering": 6936,
      "img": 6937,
      "ĠFin": 6938,
      "cretion": 6939,
      "break": 6940,
      "Ġdirected": 6941,
      "Ġ65": 6942,
      "Ġsymbol": 6943,
      "ocytes": 6944,
      "Ġfif": 6945,
      "DL": 6946,
      "Ġdraft": 6947,
      "ĠEngland": 6948,
      "Ġpayment": 6949,
      "ĠWhich": 6950,
      "fee": 6951,
      "FP": 6952,
      "Ġgalax": 6953,
      "ector": 6954,
      "Ġthanks": 6955,
      "annels": 6956,
      "2017": 6957,
      "Ġprices": 6958,
      "Ġincub": 6959,
      "Start": 6960,
      "amental": 6961,
      "cat": 6962,
      "Ġbond": 6963,
      "QU": 6964,
      "Ġcris": 6965,
      "ĠPen": 6966,
      "bert": 6967,
      "Ġforced": 6968,
      "Ġdocuments": 6969,
      "ĠSN": 6970,
      "Ġemph": 6971,
      "Ġreligious": 6972,
      "Ġearth": 6973,
      "Ġintellig": 6974,
      "ĠFlorida": 6975,
      "ĠParty": 6976,
      "velopment": 6977,
      "small": 6978,
      "diction": 6979,
      "Ġlisted": 6980,
      "300": 6981,
      "dat": 6982,
      "ĠMem": 6983,
      "Us": 6984,
      "Ã¼": 6985,
      "Ġcup": 6986,
      "ERR": 6987,
      "Ġaccident": 6988,
      "ÃĲÂµ": 6989,
      "context": 6990,
      "estic": 6991,
      ">(": 6992,
      "ĠMo": 6993,
      "itions": 6994,
      "Ġnav": 6995,
      "Ġoxid": 6996,
      "ĠWil": 6997,
      "plet": 6998,
      "ivo": 6999,
      "Ġdetermination": 7000,
      "Ġapparatus": 7001,
      "Part": 7002,
      "Ġstories": 7003,
      "Ġequations": 7004,
      "Ġstimul": 7005,
      "Ġmo": 7006,
      "Ġskills": 7007,
      "ĠTom": 7008,
      "Ġrock": 7009,
      "Ġconflict": 7010,
      "Ġfocused": 7011,
      "]--": 7012,
      "ĠCopyright": 7013,
      "Ġdepending": 7014,
      "Ġalter": 7015,
      "inv": 7016,
      "Ġforth": 7017,
      "rive": 7018,
      "Ġ300": 7019,
      "Ġwaiting": 7020,
      "amm": 7021,
      "Ġlose": 7022,
      "Since": 7023,
      "Ġvirtual": 7024,
      "Ġplays": 7025,
      "_{{\\": 7026,
      "itable": 7027,
      "}}^": 7028,
      "Ġresulted": 7029,
      "Ġconsult": 7030,
      "Ġminim": 7031,
      "rep": 7032,
      "Ġfans": 7033,
      "NO": 7034,
      "sg": 7035,
      "idelines": 7036,
      "Ġaccum": 7037,
      "clusive": 7038,
      "Ġ2002": 7039,
      "Ġmeasurement": 7040,
      "ĠHill": 7041,
      "Ġecho": 7042,
      "AGE": 7043,
      "Ġuint": 7044,
      "iot": 7045,
      "Ġconcern": 7046,
      "Ġobservations": 7047,
      "Ġpossibly": 7048,
      "BO": 7049,
      "ĠSal": 7050,
      "Ġsch": 7051,
      "levision": 7052,
      "scale": 7053,
      "Ġversus": 7054,
      "ĠPC": 7055,
      "ounce": 7056,
      "Ġmodified": 7057,
      "status": 7058,
      "Ġbelieved": 7059,
      "only": 7060,
      "ĠSE": 7061,
      "cdots": 7062,
      "Content": 7063,
      "Ġdeg": 7064,
      "\"}.": 7065,
      "--------------------------------------------------------------------------------------------------------------------------------": 7066,
      "ĠCI": 7067,
      "bound": 7068,
      "YPE": 7069,
      "Ġexcellent": 7070,
      "ĠHIV": 7071,
      "Ġafford": 7072,
      "Ġassuming": 7073,
      "output": 7074,
      "Ġcompr": 7075,
      "ĠRussia": 7076,
      "event": 7077,
      "ĠForm": 7078,
      "Result": 7079,
      "rypt": 7080,
      "Ġneither": 7081,
      "alty": 7082,
      "Ġnodes": 7083,
      "inations": 7084,
      "ushed": 7085,
      "Ġfees": 7086,
      "Ġangle": 7087,
      "ĠMA": 7088,
      "Ġexplan": 7089,
      "Ġfloat": 7090,
      "Ġoffense": 7091,
      "Te": 7092,
      "ĠDiv": 7093,
      "Ġtag": 7094,
      "ĠOpen": 7095,
      "Ġtwice": 7096,
      "Ġcere": 7097,
      "Ġemployed": 7098,
      "More": 7099,
      "stood": 7100,
      "imately": 7101,
      "ĠIT": 7102,
      "rapeut": 7103,
      "Ġapproaches": 7104,
      "Ġcommunities": 7105,
      "ĠGold": 7106,
      "ĠLord": 7107,
      "ĠTime": 7108,
      "Ġdamages": 7109,
      "ĠNa": 7110,
      "Â¶": 7111,
      "Ġoblig": 7112,
      "Ġcompare": 7113,
      "va": 7114,
      "search": 7115,
      "GE": 7116,
      "Ġstreet": 7117,
      "Ġplanning": 7118,
      "ACK": 7119,
      "ellular": 7120,
      "ĠVir": 7121,
      "edia": 7122,
      "Ġscan": 7123,
      "Ġseek": 7124,
      "Ġ41": 7125,
      "Ġinvestigate": 7126,
      "ĠServ": 7127,
      "Ġresource": 7128,
      "Ġstanding": 7129,
      "imer": 7130,
      "Ġenhance": 7131,
      "ĠEX": 7132,
      "GB": 7133,
      "Ġsalt": 7134,
      "ĠUN": 7135,
      "ĠBre": 7136,
      "Ġrich": 7137,
      "Ġpreval": 7138,
      "Ġscores": 7139,
      "umns": 7140,
      "Ġtranscription": 7141,
      "ä»": 7142,
      "Ġconfidence": 7143,
      "Ġcos": 7144,
      "Ġaccuracy": 7145,
      "otherapy": 7146,
      "ipher": 7147,
      "Ġshock": 7148,
      "Ġfunding": 7149,
      "Ġ120": 7150,
      "128": 7151,
      "ĠWindows": 7152,
      "Ġhelps": 7153,
      "Ġbatter": 7154,
      "Ġwilling": 7155,
      "Ġconcerned": 7156,
      "]--[@": 7157,
      "SL": 7158,
      "ĠRob": 7159,
      "Read": 7160,
      "Ġhousing": 7161,
      "Rem": 7162,
      "Ġtrials": 7163,
      "else": 7164,
      "ician": 7165,
      "ĠSam": 7166,
      "Ġintervention": 7167,
      "Ġsensitivity": 7168,
      "ĠFile": 7169,
      "layout": 7170,
      "ĠBer": 7171,
      "outhern": 7172,
      "Mon": 7173,
      "ĠFree": 7174,
      "Ġ_{": 7175,
      "\\!": 7176,
      "ĠBel": 7177,
      "Ġcitizens": 7178,
      "Ġegg": 7179,
      "Ġmainly": 7180,
      "istory": 7181,
      "Ġdepth": 7182,
      "Ġguilty": 7183,
      "ĠMary": 7184,
      "del": 7185,
      "Ø§": 7186,
      "Ġboundary": 7187,
      "Ġasking": 7188,
      "nav": 7189,
      "Ġelectronic": 7190,
      "ĠThursday": 7191,
      "uous": 7192,
      "Ġadults": 7193,
      "inton": 7194,
      "oded": 7195,
      "Ġrelationships": 7196,
      "pload": 7197,
      "ĠPet": 7198,
      "Controller": 7199,
      "Ġtun": 7200,
      "INE": 7201,
      "ĠRef": 7202,
      "ĠCircuit": 7203,
      "erior": 7204,
      "Ġspat": 7205,
      "Ġpal": 7206,
      "ĠBur": 7207,
      "Ġinvolving": 7208,
      "sect": 7209,
      "Ġdatas": 7210,
      "Ġexperienced": 7211,
      "Ġanalog": 7212,
      "android": 7213,
      "%.": 7214,
      "Which": 7215,
      "ĠMex": 7216,
      "^+^": 7217,
      "Last": 7218,
      "mid": 7219,
      "Ġbon": 7220,
      "cr": 7221,
      "Ġfinished": 7222,
      "Ġevaluate": 7223,
      "Ġcogn": 7224,
      "Ġ&=": 7225,
      "Ġexposed": 7226,
      "ĠWednesday": 7227,
      "client": 7228,
      "Ã¤": 7229,
      "Ġrecip": 7230,
      "ĠJapanese": 7231,
      "usal": 7232,
      "Ġexpansion": 7233,
      "Ġcontribution": 7234,
      "Base": 7235,
      "ĠPR": 7236,
      "________________": 7237,
      "ĠIslam": 7238,
      "Ġsignaling": 7239,
      "ĠBrown": 7240,
      "TA": 7241,
      "ontal": 7242,
      "ĠSH": 7243,
      "Ġextends": 7244,
      "possible": 7245,
      "Ġadvice": 7246,
      "appe": 7247,
      "Ġworse": 7248,
      "Override": 7249,
      "ateral": 7250,
      "esh": 7251,
      "ĠSolve": 7252,
      "2010": 7253,
      "gent": 7254,
      "2000": 7255,
      "eles": 7256,
      "Post": 7257,
      "2011": 7258,
      "sin": 7259,
      "ĠCL": 7260,
      "ĊĠĠĠĠĠĠĠĠĠĠĠĠĠĠĠĠĠ": 7261,
      "Ġemployee": 7262,
      "Ġframework": 7263,
      "ĠJesus": 7264,
      "\"),": 7265,
      "Ġcontinues": 7266,
      "cup": 7267,
      "module": 7268,
      "ĠEnd": 7269,
      "Ġcapable": 7270,
      "adding": 7271,
      "uls": 7272,
      "ĠĠĠĠĠĠĠĠĠĠĠĠĠĠĠĠĠĠĠĠĠĠĠĠĠĠĠĠĠĠĠĠĠĠĠĠĠĠĠĠĠĠĠĠĠĠĠĠĠĠĠĠĠĠĠĠĠĠĠĠĠĠĠĠĠĠĠĠĠĠĠĠĠĠĠĠĠĠĠĠĠĠĠĠĠĠĠĠĠĠĠĠĠĠĠĠĠĠĠĠĠĠĠĠĠĠĠĠĠĠĠĠĠĠĠĠĠĠĠĠĠĠĠĠĠĠĠĠĠĠĠĠĠĠĠĠĠĠĠĠĠĠĠĠĠĠĠĠĠĠĠĠĠĠĠĠĠĠĠĠĠĠĠĠĠĠĠĠĠĠĠĠĠĠĠĠĠĠĠĠĠĠĠĠĠĠĠĠĠĠĠĠĠĠĠĠĠĠĠĠĠĠĠĠĠĠĠĠĠĠĠĠĠĠĠĠĠĠĠĠĠĠĠĠĠĠĠĠĠĠĠĠĠĠĠĠĠĠĠĠĠĠĠĠĠĠĠĠĠĠĠĠĠĠĠĠ": 7273,
      "Ġadvert": 7274,
      "ita": 7275,
      "Ġfab": 7276,
      "Ġsettings": 7277,
      "FIG": 7278,
      "ĠAlex": 7279,
      "Ġideal": 7280,
      "čĊĠĠĠĠĠ": 7281,
      "Ġdepartment": 7282,
      "Ġdil": 7283,
      "Ġassessed": 7284,
      "Ġintensity": 7285,
      "Note": 7286,
      "utely": 7287,
      "Ġcritic": 7288,
      "Ġplot": 7289,
      "umer": 7290,
      "Ġion": 7291,
      "Ġharm": 7292,
      "007": 7293,
      "ĠSD": 7294,
      "rr": 7295,
      ")^{": 7296,
      "/-": 7297,
      "Ġphenomen": 7298,
      "Ġrent": 7299,
      "Ñĥ": 7300,
      "ĠFederal": 7301,
      "ĠAustralia": 7302,
      "ĠInternet": 7303,
      "OK": 7304,
      "Ġdys": 7305,
      ".**": 7306,
      "ivation": 7307,
      "je": 7308,
      "enance": 7309,
      "etime": 7310,
      "Ġcompetition": 7311,
      "END": 7312,
      "Go": 7313,
      "conf": 7314,
      "Ġordered": 7315,
      "Ġadvance": 7316,
      "Ġadvanced": 7317,
      "Ġdemonstrate": 7318,
      "Ġbiological": 7319,
      "ĠOffice": 7320,
      "Ġguide": 7321,
      "Ġplaintiffs": 7322,
      "Vert": 7323,
      "ĠIP": 7324,
      "NF": 7325,
      "Ġpept": 7326,
      "Ġrelates": 7327,
      "Ġstack": 7328,
      "press": 7329,
      "raq": 7330,
      "eting": 7331,
      "006": 7332,
      ";&": 7333,
      "ernel": 7334,
      "Ð»": 7335,
      "Ġmurder": 7336,
      "apers": 7337,
      "Ġpersons": 7338,
      "rot": 7339,
      "Ġdeliver": 7340,
      "MD": 7341,
      "ĠGeorge": 7342,
      "Ġcash": 7343,
      "ĠMS": 7344,
      "GC": 7345,
      "ilton": 7346,
      "Ġscope": 7347,
      "entry": 7348,
      "Ġstrain": 7349,
      "display": 7350,
      "Ġchallenges": 7351,
      "Ġpotentially": 7352,
      "Ġsuitable": 7353,
      "Ġban": 7354,
      "Ġimaging": 7355,
      "dy": 7356,
      "Ġ49": 7357,
      "Ġ47": 7358,
      "Ġhumans": 7359,
      "gical": 7360,
      "ua": 7361,
      "Ġvelocity": 7362,
      "Ġ46": 7363,
      "Ġnorth": 7364,
      "ker": 7365,
      "Ge": 7366,
      "Ġinterval": 7367,
      "Ġindepend": 7368,
      "Ġconsent": 7369,
      "Ġconference": 7370,
      "Ġrats": 7371,
      "ĠHall": 7372,
      "Ġdecide": 7373,
      "Ġstopped": 7374,
      "Ġfill": 7375,
      "Ġiron": 7376,
      "ĠSaturday": 7377,
      "ĠFIG": 7378,
      "ĠCP": 7379,
      "Ġstatistical": 7380,
      "ftware": 7381,
      "Ġsam": 7382,
      "Fe": 7383,
      "Version": 7384,
      "Ġconstraint": 7385,
      "Ġimprovement": 7386,
      "Ġarter": 7387,
      "missions": 7388,
      "uint": 7389,
      "Ġrecall": 7390,
      "Ut": 7391,
      "ĠGa": 7392,
      "Ġtight": 7393,
      "âĢĿ,": 7394,
      "iary": 7395,
      "Simplify": 7396,
      "Ġadministr": 7397,
      "orthern": 7398,
      "ĠGood": 7399,
      "ĠDefendant": 7400,
      "Ġcrow": 7401,
      "Ġmel": 7402,
      "Ġclaimed": 7403,
      "Ġconsc": 7404,
      "ĠRobert": 7405,
      "Ġremained": 7406,
      "ashed": 7407,
      "Ġthin": 7408,
      "Ġstrict": 7409,
      "iliar": 7410,
      "apped": 7411,
      "Ġ43": 7412,
      "orted": 7413,
      "ROM": 7414,
      "ifferent": 7415,
      "ometric": 7416,
      "Rev": 7417,
      "ĠNO": 7418,
      "arden": 7419,
      "iples": 7420,
      "Ġended": 7421,
      "inates": 7422,
      "ĉĉĉ": 7423,
      "ifies": 7424,
      "Ġsides": 7425,
      "Ġburden": 7426,
      "xygen": 7427,
      "Ġunknown": 7428,
      "Ġpartial": 7429,
      "ERS": 7430,
      "Ġduration": 7431,
      "Ġmand": 7432,
      "Ġchief": 7433,
      "dule": 7434,
      "ĠType": 7435,
      "Ġlegisl": 7436,
      "Ġjump": 7437,
      "Ġsuggesting": 7438,
      "ĊĠĠĠĠĠĠĠĠĠĠ": 7439,
      "ĠPlease": 7440,
      "Ġran": 7441,
      "ĊĠĠĠĠĠĠĠĠĠĠĠĠĠĠĠĠĠĠĠĠĠĠĠĠĠĠĠĠĠĠĠ": 7442,
      "sd": 7443,
      "ĠSum": 7444,
      "ĠField": 7445,
      "Ġfrequently": 7446,
      "Ġdiscovered": 7447,
      "Ġbranch": 7448,
      "ĠStat": 7449,
      "Ġhence": 7450,
      "120": 7451,
      "itud": 7452,
      "arks": 7453,
      "Char": 7454,
      "Ġdoctor": 7455,
      "Ġadequ": 7456,
      "Âº": 7457,
      "Ġlic": 7458,
      "ĠLin": 7459,
      "ĠÂ£": 7460,
      "Ġbag": 7461,
      "ĠRussian": 7462,
      "antic": 7463,
      "============": 7464,
      "clusions": 7465,
      "Ġreverse": 7466,
      "Off": 7467,
      "ears": 7468,
      "Ġargues": 7469,
      "dep": 7470,
      "plete": 7471,
      "Ġsan": 7472,
      "ĠRule": 7473,
      "Ġorient": 7474,
      ")}\\": 7475,
      "Ġlimits": 7476,
      "Ġnine": 7477,
      "Ġbright": 7478,
      "Ġcelebr": 7479,
      "Check": 7480,
      "~~~": 7481,
      "ĠRepublican": 7482,
      "Ġnecessarily": 7483,
      "ĠTur": 7484,
      "2018": 7485,
      "Script": 7486,
      "ĠIF": 7487,
      "Ġ150": 7488,
      "Ġcolon": 7489,
      "Ġton": 7490,
      "Create": 7491,
      "Ġarms": 7492,
      "Ġannual": 7493,
      "rey": 7494,
      "charge": 7495,
      "rip": 7496,
      "Frame": 7497,
      "ĠANY": 7498,
      "ĠCE": 7499,
      "Ġmarked": 7500,
      "args": 7501,
      "ployment": 7502,
      "ju": 7503,
      "mg": 7504,
      "ĠWork": 7505,
      "Ġcourts": 7506,
      "Conne": 7507,
      "Ġsynd": 7508,
      "Ġsole": 7509,
      "Ġseconds": 7510,
      "Ġpharm": 7511,
      "dden": 7512,
      "Ġradiation": 7513,
      "Ġ56": 7514,
      "Ġaxis": 7515,
      "Ġformal": 7516,
      "Ġvariation": 7517,
      "Ġdestroy": 7518,
      "Ġassembly": 7519,
      "ĠUse": 7520,
      "Ġstability": 7521,
      "Ġrough": 7522,
      "GA": 7523,
      "Cell": 7524,
      "Ġens": 7525,
      "roke": 7526,
      "iverse": 7527,
      "ĠSecret": 7528,
      ")]": 7529,
      "iological": 7530,
      "ĠHence": 7531,
      "\"]": 7532,
      "*/": 7533,
      "Ġpoll": 7534,
      "Ġwidely": 7535,
      "Ġtick": 7536,
      "ĠMinister": 7537,
      "Ġacute": 7538,
      "uing": 7539,
      "Ġantibody": 7540,
      "Ġthereby": 7541,
      "ools": 7542,
      "Ġstick": 7543,
      "TC": 7544,
      "IO": 7545,
      "Ġdefinitely": 7546,
      "mas": 7547,
      "Ġbrand": 7548,
      "Ġoral": 7549,
      "icious": 7550,
      "May": 7551,
      "Ne": 7552,
      "Ġconven": 7553,
      "Ġprovision": 7554,
      "Ġtables": 7555,
      "Ġice": 7556,
      "Ġpossess": 7557,
      "Ġlinked": 7558,
      "Ġdimension": 7559,
      "ĠTwitter": 7560,
      "Ġaspects": 7561,
      "ĠSand": 7562,
      "ĠmRNA": 7563,
      "ĠJohnson": 7564,
      "usiness": 7565,
      "Ġcort": 7566,
      "Page": 7567,
      "Ġgrav": 7568,
      "Ġattacks": 7569,
      "method": 7570,
      "month": 7571,
      "Ġkeeping": 7572,
      "Ġimplies": 7573,
      "Ġnumerous": 7574,
      "helial": 7575,
      "References": 7576,
      "icago": 7577,
      "Ġpopulations": 7578,
      "mut": 7579,
      "Ġindicating": 7580,
      "ABLE": 7581,
      "Ġanc": 7582,
      "Ġul": 7583,
      "Ġstarts": 7584,
      "Americ": 7585,
      "asy": 7586,
      "ĠWITH": 7587,
      "ĠLike": 7588,
      "ĠFrance": 7589,
      "Ġmixture": 7590,
      "ochem": 7591,
      "Ġidentification": 7592,
      "Action": 7593,
      "Ġfundamental": 7594,
      "NN": 7595,
      "rine": 7596,
      "Ġwaste": 7597,
      "Ġarchitect": 7598,
      "Ġopposite": 7599,
      "cut": 7600,
      "Ġrare": 7601,
      "Ġaccepted": 7602,
      "ĠJustice": 7603,
      "ĠGerman": 7604,
      "HS": 7605,
      "roduction": 7606,
      "osh": 7607,
      "Response": 7608,
      "ĠLog": 7609,
      "Ġinterpretation": 7610,
      "Ġmortality": 7611,
      "Ġunable": 7612,
      "ĠĊĠĠĠ": 7613,
      "Ġinstructions": 7614,
      "Ġentirely": 7615,
      "Ġviolation": 7616,
      "Ġmission": 7617,
      "Ġinteract": 7618,
      "war": 7619,
      "Ġcoach": 7620,
      "Ġbreath": 7621,
      "Ġbeat": 7622,
      "([": 7623,
      "Ġtruly": 7624,
      "Ġabsolute": 7625,
      "Psi": 7626,
      "ĠOnce": 7627,
      "Ġrecognized": 7628,
      "ĠAppe": 7629,
      "Ġju": 7630,
      "Ġsouth": 7631,
      "agon": 7632,
      "msgid": 7633,
      "Ġcellular": 7634,
      "Ġbone": 7635,
      "\\/": 7636,
      "Ġgonna": 7637,
      "unit": 7638,
      "Ġpractices": 7639,
      "ĠOnly": 7640,
      "Ġdistingu": 7641,
      "Ġreprodu": 7642,
      "ĠDec": 7643,
      "Ġgirls": 7644,
      "\"})": 7645,
      "rency": 7646,
      "hedul": 7647,
      "Ġspl": 7648,
      "Ġcontribute": 7649,
      "Ġgluc": 7650,
      "Ġnotes": 7651,
      "Ġnarrow": 7652,
      "Status": 7653,
      "Ġparallel": 7654,
      "Ġdegrees": 7655,
      "ensed": 7656,
      "Ġsudden": 7657,
      "Ġends": 7658,
      "Filter": 7659,
      "anda": 7660,
      "Ġpartner": 7661,
      "hether": 7662,
      "Ġmassive": 7663,
      "Ġsupporting": 7664,
      "Ġrelax": 7665,
      "ashion": 7666,
      "Ġsmart": 7667,
      "next": 7668,
      "MC": 7669,
      "Ġsuppl": 7670,
      "msgstr": 7671,
      "find": 7672,
      "Ġmouth": 7673,
      "ĠPA": 7674,
      "xe": 7675,
      "opath": 7676,
      "110": 7677,
      "Ġprotest": 7678,
      "ĠIraq": 7679,
      "ĠCell": 7680,
      "lections": 7681,
      "png": 7682,
      "Ġtrip": 7683,
      "Ġresponsibility": 7684,
      "Ġreact": 7685,
      "})\\": 7686,
      "EXT": 7687,
      "request": 7688,
      "Ġsigns": 7689,
      "$)": 7690,
      "Ġbecoming": 7691,
      "Ġmiles": 7692,
      "Ġemployment": 7693,
      "claim": 7694,
      "vol": 7695,
      "Ġast": 7696,
      "Ġpolymer": 7697,
      "cale": 7698,
      "BD": 7699,
      "Ġcorre": 7700,
      "apse": 7701,
      "ĠON": 7702,
      "oster": 7703,
      "ĠSenate": 7704,
      "Load": 7705,
      "Ġattached": 7706,
      "Ġappearance": 7707,
      "Ġcamera": 7708,
      "(\\[": 7709,
      "Ġsin": 7710,
      "Ġtechnical": 7711,
      "ipping": 7712,
      "ĠMass": 7713,
      "Ġaccompl": 7714,
      "Solve": 7715,
      "ĠObject": 7716,
      "Ġdisk": 7717,
      "Ġcompound": 7718,
      "Ġhole": 7719,
      "Ġmanaged": 7720,
      "Ġresidents": 7721,
      "Ġroute": 7722,
      "Ġ[[": 7723,
      "ERE": 7724,
      "Ġdependent": 7725,
      "tyle": 7726,
      "iral": 7727,
      "Ġoffset": 7728,
      "400": 7729,
      "Ġvitro": 7730,
      "Ġminute": 7731,
      "append": 7732,
      "Ġmolecules": 7733,
      "ĠGive": 7734,
      "widehat": 7735,
      "Ġconcluded": 7736,
      "ĠProgram": 7737,
      "Ġenable": 7738,
      "tra": 7739,
      "Ġcoh": 7740,
      "Ġdynamic": 7741,
      "ello": 7742,
      "Dec": 7743,
      "\\]).": 7744,
      "Rel": 7745,
      "TE": 7746,
      "Ġesc": 7747,
      "orters": 7748,
      "clear": 7749,
      "Ġapart": 7750,
      "Ġcommonly": 7751,
      "Ġamounts": 7752,
      "Label": 7753,
      "Det": 7754,
      "Ġpix": 7755,
      "\\[[@": 7756,
      "BP": 7757,
      "Ġdefic": 7758,
      "option": 7759,
      "Ġassigned": 7760,
      "match": 7761,
      "Ġconsideration": 7762,
      "FO": 7763,
      "media": 7764,
      "ĠCle": 7765,
      "Ġcommission": 7766,
      "Ġprolif": 7767,
      "Your": 7768,
      "kins": 7769,
      "Ġphoto": 7770,
      "ket": 7771,
      "Default": 7772,
      "*^": 7773,
      "Ġpursu": 7774,
      "Ġunderstood": 7775,
      "Ġarticles": 7776,
      "omial": 7777,
      "Handler": 7778,
      "Ġdynamics": 7779,
      "{\"": 7780,
      "Ġsought": 7781,
      "yer": 7782,
      "ĠTheir": 7783,
      "Ġrequirement": 7784,
      "Ġfacilit": 7785,
      "effect": 7786,
      "herent": 7787,
      "LS": 7788,
      "aked": 7789,
      "Ġeffectively": 7790,
      "ĠInstead": 7791,
      "ĠMot": 7792,
      "road": 7793,
      "Ġaccurate": 7794,
      "uns": 7795,
      "wing": 7796,
      "grade": 7797,
      "UI": 7798,
      "VA": 7799,
      "ĠJava": 7800,
      "LC": 7801,
      "Ġship": 7802,
      "Ġgap": 7803,
      "ĠSing": 7804,
      "control": 7805,
      "Ġestimates": 7806,
      "irty": 7807,
      "Ġjurisdiction": 7808,
      "Please": 7809,
      "ĠPH": 7810,
      "Ġsensitive": 7811,
      "Ġmicrosc": 7812,
      "adata": 7813,
      "scrib": 7814,
      "Two": 7815,
      "neg": 7816,
      "ĠPlan": 7817,
      "Ġspaces": 7818,
      "adian": 7819,
      "ĠAnn": 7820,
      "Ġconj": 7821,
      "Ġtemplate": 7822,
      "Ġrender": 7823,
      "Ġfilled": 7824,
      "Ġstem": 7825,
      "linear": 7826,
      "uscript": 7827,
      "Ġ52": 7828,
      "**,": 7829,
      "}}{\\": 7830,
      "ĠAfrica": 7831,
      "Ġsplit": 7832,
      "fess": 7833,
      "Ġdecades": 7834,
      "eding": 7835,
      "Ġusual": 7836,
      "Ġmessages": 7837,
      "ijms": 7838,
      "Ġbath": 7839,
      "chron": 7840,
      "Ġbinary": 7841,
      "Ġestate": 7842,
      "ĠTor": 7843,
      "ĠAPI": 7844,
      "Ġoxygen": 7845,
      "Ġ51": 7846,
      "Ġjustice": 7847,
      "ĠPRO": 7848,
      "Ġspending": 7849,
      "perties": 7850,
      "prote": 7851,
      "ĠPCR": 7852,
      "#:": 7853,
      "life": 7854,
      "Ġseeking": 7855,
      "rapeutic": 7856,
      "oral": 7857,
      "Ġdisput": 7858,
      "Ġfluores": 7859,
      "åĪ": 7860,
      "tings": 7861,
      "ola": 7862,
      "Ġadmitted": 7863,
      "Ġnom": 7864,
      "Ġnegot": 7865,
      "uster": 7866,
      "ĠTimes": 7867,
      "Ġsenior": 7868,
      "IE": 7869,
      "COM": 7870,
      "Ġfont": 7871,
      "ressive": 7872,
      "ĠPhil": 7873,
      "Ġwww": 7874,
      "ĠThomas": 7875,
      "Web": 7876,
      "Ġfavorite": 7877,
      "ws": 7878,
      "ander": 7879,
      "ivered": 7880,
      "ĠRiver": 7881,
      "mo": 7882,
      "ĠScott": 7883,
      "Ġstrategies": 7884,
      "Ġpet": 7885,
      "ĠNor": 7886,
      "Gl": 7887,
      "Ġsecure": 7888,
      "strong": 7889,
      "Ġsweet": 7890,
      "Ġobjective": 7891,
      "values": 7892,
      "Ġconsumption": 7893,
      "istor": 7894,
      "Ġcm": 7895,
      "obj": 7896,
      "++)": 7897,
      "Ġhoriz": 7898,
      "\"\"": 7899,
      "Ġsqrt": 7900,
      "ĠEarth": 7901,
      "agger": 7902,
      "star": 7903,
      "Ġabund": 7904,
      "Ġ72": 7905,
      "ĠBill": 7906,
      "Ġbroken": 7907,
      "Ġassistance": 7908,
      "prop": 7909,
      "ĠMag": 7910,
      "Ġcharacterized": 7911,
      "Ġsimpl": 7912,
      "Yeah": 7913,
      "anta": 7914,
      "mL": 7915,
      "Ġgender": 7916,
      "igr": 7917,
      "ĠMad": 7918,
      "high": 7919,
      "]]": 7920,
      "Ġplastic": 7921,
      "Am": 7922,
      "icken": 7923,
      "Ġintention": 7924,
      "ĠStand": 7925,
      "Ġsmallest": 7926,
      "Ġacadem": 7927,
      "bour": 7928,
      "yg": 7929,
      "2008": 7930,
      "amber": 7931,
      "float": 7932,
      "Ġintra": 7933,
      "Ġpredicted": 7934,
      "Ġarrange": 7935,
      "OB": 7936,
      "^-": 7937,
      "Ġemission": 7938,
      "private": 7939,
      "lik": 7940,
      "ĠIndeed": 7941,
      "Ġtissues": 7942,
      "ributions": 7943,
      "water": 7944,
      "Â¸": 7945,
      "Äģ": 7946,
      "[\"": 7947,
      "Ġorders": 7948,
      "Ġped": 7949,
      "ĠWill": 7950,
      "Ġreb": 7951,
      "fold": 7952,
      "Ġchair": 7953,
      "ĠFore": 7954,
      "Ġhem": 7955,
      "ura": 7956,
      "Layout": 7957,
      "ami": 7958,
      "Ġcof": 7959,
      "olecules": 7960,
      "Ġfan": 7961,
      "NU": 7962,
      "Control": 7963,
      "Ġneurons": 7964,
      "}/": 7965,
      "eds": 7966,
      "ye": 7967,
      "Ġcart": 7968,
      "Ġprinciple": 7969,
      "Ġ[]": 7970,
      "Ġscientific": 7971,
      "Ġpages": 7972,
      "osa": 7973,
      "Ġexpensive": 7974,
      "ĠMil": 7975,
      "Ġmarriage": 7976,
      "Ġfell": 7977,
      "adow": 7978,
      "ĠSP": 7979,
      "Ġalt": 7980,
      "Ġzone": 7981,
      "fit": 7982,
      "ala": 7983,
      "ĠCarol": 7984,
      "Ġrecommended": 7985,
      "Ġphilos": 7986,
      "').": 7987,
      "ĠDen": 7988,
      "Ġsubset": 7989,
      "Ġsupports": 7990,
      "tag": 7991,
      "ogenic": 7992,
      "quot": 7993,
      "tab": 7994,
      "??": 7995,
      "Ġcustomer": 7996,
      "Ġcorner": 7997,
      "Ġparticle": 7998,
      "coin": 7999,
      "2009": 8000,
      "Ġpieces": 8001,
      "Ġ54": 8002,
      "ounter": 8003,
      "TS": 8004,
      "æľ": 8005,
      "system": 8006,
      "never": 8007,
      "Ġmanuscript": 8008,
      "ani": 8009,
      "ocy": 8010,
      "ĠProject": 8011,
      "Ġperman": 8012,
      "Ġwatching": 8013,
      "DC": 8014,
      "ĠMedical": 8015,
      "ĠMuslim": 8016,
      "Ġexceed": 8017,
      "Ġlarg": 8018,
      "Ġlaunch": 8019,
      "Tem": 8020,
      "Ġdiscretion": 8021,
      "ĠFranc": 8022,
      "Ġcausing": 8023,
      "ĠMethod": 8024,
      "FR": 8025,
      "rition": 8026,
      "ĠLouis": 8027,
      "etch": 8028,
      "Ġsuccessfully": 8029,
      "Ġtelevision": 8030,
      "show": 8031,
      "Ġmargin": 8032,
      "Ġchannels": 8033,
      "Ġcompre": 8034,
      "ĠIV": 8035,
      "Ġtoler": 8036,
      "aren": 8037,
      "otted": 8038,
      "Ġtranscript": 8039,
      "Ġinfo": 8040,
      "split": 8041,
      "Ġbaseline": 8042,
      "Ġ1999": 8043,
      "Ġtargets": 8044,
      "ĠInformation": 8045,
      "gener": 8046,
      "vant": 8047,
      "Ġsupra": 8048,
      "Ġreducing": 8049,
      "seud": 8050,
      "Ġcrisis": 8051,
      "fa": 8052,
      "Ġsegment": 8053,
      "iki": 8054,
      "fast": 8055,
      "ĠFrank": 8056,
      "tw": 8057,
      "Ġamb": 8058,
      "Ġwarn": 8059,
      "ĠSpec": 8060,
      "ĠNE": 8061,
      "ĠMa": 8062,
      "ena": 8063,
      "Ġlargely": 8064,
      "ĠHospital": 8065,
      "Ġbattle": 8066,
      "ĠSil": 8067,
      "Ġunion": 8068,
      "Ġimpossible": 8069,
      "acent": 8070,
      "Ġvit": 8071,
      "SR": 8072,
      "}},": 8073,
      "Ġscr": 8074,
      "Ġinhibition": 8075,
      "ĠpH": 8076,
      "Ġcomposite": 8077,
      "ĠArab": 8078,
      "ollowing": 8079,
      "Ġautomatically": 8080,
      "Su": 8081,
      "ĠEU": 8082,
      "creen": 8083,
      "Ġsitting": 8084,
      "Ġinstalled": 8085,
      "Ġinformed": 8086,
      "///": 8087,
      "exec": 8088,
      "ĠRad": 8089,
      "ĠMath": 8090,
      "Ġepit": 8091,
      "Ġsupplement": 8092,
      "Ġdiabetes": 8093,
      "Ġpromote": 8094,
      "Ġauthorities": 8095,
      "VE": 8096,
      "Ġattend": 8097,
      "Ġresearchers": 8098,
      "Ġâī": 8099,
      "Ġvess": 8100,
      "oxy": 8101,
      "ĠCr": 8102,
      "inite": 8103,
      "css": 8104,
      "Ġaccel": 8105,
      "brid": 8106,
      "ĠCap": 8107,
      "Ġasym": 8108,
      "Ġstructural": 8109,
      "Ġworry": 8110,
      "iability": 8111,
      "ĠWAR": 8112,
      "Ġsand": 8113,
      "La": 8114,
      "Next": 8115,
      "Ġexamination": 8116,
      "Ġmarried": 8117,
      "Ġorganic": 8118,
      "Ġsector": 8119,
      "Ġsac": 8120,
      "Ġforget": 8121,
      "ĠQue": 8122,
      "Thanks": 8123,
      "ĠSoftware": 8124,
      "wer": 8125,
      "Ġcompact": 8126,
      "olid": 8127,
      "Ġdisorder": 8128,
      "Ġdomin": 8129,
      "Where": 8130,
      "Ġtor": 8131,
      "ogenesis": 8132,
      "Ġrepresentative": 8133,
      "Mr": 8134,
      "ulating": 8135,
      "thm": 8136,
      "Ġknock": 8137,
      "imb": 8138,
      "ZE": 8139,
      "root": 8140,
      "Ġstrains": 8141,
      "vin": 8142,
      "ĠGL": 8143,
      "OH": 8144,
      "ez": 8145,
      "UP": 8146,
      "plant": 8147,
      "Ġweekend": 8148,
      "Ġseat": 8149,
      "Ġproportion": 8150,
      "Ġputting": 8151,
      "Ġvisible": 8152,
      "Although": 8153,
      "```": 8154,
      "ĠCentral": 8155,
      "ĠHel": 8156,
      "ĠĠĠĠĠĠĠĠĠĠĠĠĠĠĠĠĠĠĠĠĠĠĠĠĠĠĠĠĠĠĠĠĠĠĠĠĠĠĠĠĠĠĠĠĠĠĠĠĠĠĠĠĠĠĠĠĠĠĠĠĠĠĠĠĠĠĠĠĠĠĠĠĠĠĠĠĠĠĠĠĠĠĠĠĠĠĠĠĠĠĠĠĠĠĠĠ": 8157,
      "google": 8158,
      "Ġjoined": 8159,
      "ĠPy": 8160,
      "Ġfaster": 8161,
      "Ġguard": 8162,
      "Ġsi": 8163,
      "Ġconcerning": 8164,
      "ĠLemma": 8165,
      "oration": 8166,
      "Ġstret": 8167,
      "Ġveget": 8168,
      "Ġadm": 8169,
      "Ġreplaced": 8170,
      "fections": 8171,
      "Ġeditor": 8172,
      "Ġfacilities": 8173,
      "Ġobservation": 8174,
      "number": 8175,
      "Ġfinish": 8176,
      "Ġdivers": 8177,
      "ĠStr": 8178,
      "ĊĠĠĠĠĠĠĠĠĠĠĠĠĠĠ": 8179,
      "Another": 8180,
      "Ġbott": 8181,
      "Ġsolve": 8182,
      "dist": 8183,
      "Ġdebate": 8184,
      "oxid": 8185,
      "Ġdream": 8186,
      "GR": 8187,
      "ĠVol": 8188,
      "mediate": 8189,
      "ĠAfrican": 8190,
      "Ġherself": 8191,
      "ĠIts": 8192,
      "Ġforg": 8193,
      "ĠEduc": 8194,
      "Ġalgebra": 8195,
      "}|": 8196,
      "Ġreform": 8197,
      "Ã§": 8198,
      "ptic": 8199,
      "contin": 8200,
      "Ġacting": 8201,
      "Gu": 8202,
      "Ġsea": 8203,
      "Ġbehaviour": 8204,
      "Ġlayers": 8205,
      "ĠChicago": 8206,
      "Ġoverl": 8207,
      "Ġ101": 8208,
      "Ġble": 8209,
      "ĠView": 8210,
      "Ġsugar": 8211,
      "Ġhomes": 8212,
      "common": 8213,
      "&=": 8214,
      "Ġantibodies": 8215,
      "Ġassumed": 8216,
      "otten": 8217,
      "Ġdangerous": 8218,
      "options": 8219,
      "NAME": 8220,
      "Ġturns": 8221,
      "Ġcandidates": 8222,
      "sign": 8223,
      "ĠGreat": 8224,
      "ĠClinton": 8225,
      "loc": 8226,
      "Ġlie": 8227,
      "Ġinvolves": 8228,
      "Ġreson": 8229,
      "ĠBi": 8230,
      "Ġmerely": 8231,
      "Ġmatters": 8232,
      "ICE": 8233,
      "Ġapopt": 8234,
      "150": 8235,
      "Ġemergency": 8236,
      "lements": 8237,
      "Ġpropag": 8238,
      "Ġampl": 8239,
      "Ġurl": 8240,
      "kl": 8241,
      "arsh": 8242,
      ")|": 8243,
      "nut": 8244,
      "ĊĊĠĠ": 8245,
      "ĠSO": 8246,
      "Ġdesc": 8247,
      "Ġjour": 8248,
      "ora": 8249,
      "Ġcontainer": 8250,
      "sche": 8251,
      "Ġsubt": 8252,
      "Ġdifferential": 8253,
      "Ġ1990": 8254,
      "Ġexperiences": 8255,
      "Ġperspective": 8256,
      "Ġhundreds": 8257,
      "ĠSecurity": 8258,
      "Instance": 8259,
      "ĠFed": 8260,
      "Ġflag": 8261,
      "ĠAnother": 8262,
      "Ġ*)": 8263,
      "Ġpassing": 8264,
      "Ġluck": 8265,
      "Ġamazing": 8266,
      "Ġlowest": 8267,
      "Ġexplore": 8268,
      "Ġexecutive": 8269,
      "Ġpairs": 8270,
      "Ġdetermining": 8271,
      "GG": 8272,
      "Ġneglig": 8273,
      "Ġrepair": 8274,
      "Ġ2020": 8275,
      "eli": 8276,
      "ulture": 8277,
      "equiv": 8278,
      "Look": 8279,
      "ameters": 8280,
      "friend": 8281,
      "Ġlived": 8282,
      "Pat": 8283,
      "ĠHT": 8284,
      "Ġclosely": 8285,
      "MM": 8286,
      "aneously": 8287,
      "Ġbias": 8288,
      "Ġsimult": 8289,
      "\\*\\*": 8290,
      "ĠÃł": 8291,
      "]);": 8292,
      "ĠEqu": 8293,
      "Ġproved": 8294,
      "DNA": 8295,
      "Right": 8296,
      "ubuntu": 8297,
      "Ġdirectory": 8298,
      "aped": 8299,
      "Ġaid": 8300,
      "lectric": 8301,
      "Ġouter": 8302,
      "Ġwrt": 8303,
      "ĠUs": 8304,
      "ĠProte": 8305,
      "oder": 8306,
      "ivated": 8307,
      "ATA": 8308,
      "Ġmenu": 8309,
      "Ġnative": 8310,
      "TD": 8311,
      "Ġregister": 8312,
      "omer": 8313,
      "ĠGal": 8314,
      "Hel": 8315,
      "Ġwalking": 8316,
      "Ġposted": 8317,
      "Ġclar": 8318,
      "Ġpolitics": 8319,
      "eness": 8320,
      "ampionship": 8321,
      "Ġconversation": 8322,
      "Ġgate": 8323,
      "rer": 8324,
      "Ġpump": 8325,
      "Ġliability": 8326,
      "Hz": 8327,
      "ortion": 8328,
      "cers": 8329,
      "Ĥ¬": 8330,
      "Ġtrees": 8331,
      "Ġmilk": 8332,
      "Ġargue": 8333,
      "Ġdelet": 8334,
      "Ġfamiliar": 8335,
      "plex": 8336,
      "Ġbio": 8337,
      "Ġinstant": 8338,
      "eger": 8339,
      "hydro": 8340,
      "ĠSl": 8341,
      "Ġprincipal": 8342,
      ".-": 8343,
      "ĠHuman": 8344,
      "Ġfre": 8345,
      "icular": 8346,
      "Ġmonitoring": 8347,
      "ĠMont": 8348,
      "Ġtelling": 8349,
      "Ġprimarily": 8350,
      "project": 8351,
      ">,": 8352,
      "oked": 8353,
      "Ġinnov": 8354,
      "ĠLong": 8355,
      "Ġprev": 8356,
      "Ġsignificance": 8357,
      "igan": 8358,
      "Ġblocks": 8359,
      "Ġembed": 8360,
      "Ġinitially": 8361,
      "aven": 8362,
      "Ġinequ": 8363,
      "ĠChild": 8364,
      "Select": 8365,
      "Ġloved": 8366,
      "fonts": 8367,
      "URL": 8368,
      "Ġdepos": 8369,
      "ĠFour": 8370,
      "Ġcities": 8371,
      "Ġvivo": 8372,
      "Ġoperators": 8373,
      "ellar": 8374,
      "ĠMer": 8375,
      "ĠStar": 8376,
      "Ġhonest": 8377,
      "Ġcorrespond": 8378,
      "pers": 8379,
      "ĠOffic": 8380,
      "description": 8381,
      "008": 8382,
      "Ġphotos": 8383,
      "Ġpip": 8384,
      "born": 8385,
      "icate": 8386,
      "Ġlots": 8387,
      "00000": 8388,
      "TER": 8389,
      "Ġ53": 8390,
      "Ġobser": 8391,
      "Ġdollars": 8392,
      "Ġinjuries": 8393,
      "Ġshell": 8394,
      "Ġeating": 8395,
      "Ġvision": 8396,
      "Ġhell": 8397,
      "Ġinstitution": 8398,
      "ayers": 8399,
      "Ġvul": 8400,
      "Ġrational": 8401,
      "Ġdelivered": 8402,
      "Ġimplemented": 8403,
      "Ġmaps": 8404,
      "ums": 8405,
      "Mat": 8406,
      "ĠSocial": 8407,
      "ĠYOU": 8408,
      "Ġdisorders": 8409,
      "Ġwear": 8410,
      "160": 8411,
      "ĠWhere": 8412,
      "BR": 8413,
      "documentclass": 8414,
      "ords": 8415,
      "uh": 8416,
      "Ġbusinesses": 8417,
      "Ġ\\{": 8418,
      "Ġbind": 8419,
      "idential": 8420,
      "Ġcontributions": 8421,
      "Ġconsists": 8422,
      "Ġinjection": 8423,
      "ci": 8424,
      "Function": 8425,
      "weet": 8426,
      "Ġ99": 8427,
      "Ġassault": 8428,
      "uzz": 8429,
      "ophy": 8430,
      "theless": 8431,
      "minimal": 8432,
      "ented": 8433,
      "Ġaccordance": 8434,
      "Ġsensor": 8435,
      "Other": 8436,
      "avel": 8437,
      "andon": 8438,
      "then": 8439,
      "Ġsuspect": 8440,
      "Ġgrown": 8441,
      "Ġbigger": 8442,
      "Ġenhanced": 8443,
      "Ġoptimal": 8444,
      "ĠColor": 8445,
      "ether": 8446,
      "Ġcloser": 8447,
      "ĠJones": 8448,
      "Ġleadership": 8449,
      "ĠControl": 8450,
      "CU": 8451,
      "Vis": 8452,
      "Ġ1998": 8453,
      "Ġdress": 8454,
      "Ġdepart": 8455,
      "Ġtom": 8456,
      "home": 8457,
      "ĠÎ²": 8458,
      "reek": 8459,
      "Ġdefe": 8460,
      "Ġbodies": 8461,
      "IND": 8462,
      "CIT": 8463,
      "Ġlaser": 8464,
      "Max": 8465,
      "called": 8466,
      "ĠĠĠĠĠĠĠĠĠĠĠĠĠĠĠĠĠĠĠĠĠĠĠĠĠĠĠ": 8467,
      "reatment": 8468,
      "Ġcaught": 8469,
      "Ġterminal": 8470,
      "Ġaccounts": 8471,
      "Ġpig": 8472,
      "Ġorganizations": 8473,
      "odds": 8474,
      "ĠLife": 8475,
      "rovers": 8476,
      "Ġgenome": 8477,
      "Ġleague": 8478,
      "Ġmethyl": 8479,
      "Ġlocations": 8480,
      "jpg": 8481,
      "Ġextend": 8482,
      "Output": 8483,
      "Ġremark": 8484,
      "Ġconsequences": 8485,
      "ski": 8486,
      "Ġillegal": 8487,
      "sup": 8488,
      "Ġopportunities": 8489,
      "DP": 8490,
      "Ġsorry": 8491,
      "Ã£": 8492,
      "yles": 8493,
      "Ġminimal": 8494,
      "Ġelectrical": 8495,
      "buf": 8496,
      "Ġrub": 8497,
      "Ġfraud": 8498,
      "Ġcorrectly": 8499,
      "Cons": 8500,
      "Before": 8501,
      "Ġfer": 8502,
      "ĠGO": 8503,
      "urally": 8504,
      "Ġfigures": 8505,
      "avas": 8506,
      "Ġfold": 8507,
      "Ġmaintenance": 8508,
      "Ġrig": 8509,
      "lines": 8510,
      "1000": 8511,
      "pet": 8512,
      "vi": 8513,
      "Ġintr": 8514,
      ")+": 8515,
      "Ġarrived": 8516,
      "Ġdenote": 8517,
      "ĠRoy": 8518,
      "Ġpp": 8519,
      "Mode": 8520,
      "ĠMedic": 8521,
      "ĠMcC": 8522,
      "Ġfacility": 8523,
      "ĠĠĠĠĠĠĠĠĠĠĠĠĠĠĠĠĠĠĠĠĠĠĠĠĠ": 8524,
      "Ġthermal": 8525,
      "]$": 8526,
      "**(": 8527,
      "Ġclosest": 8528,
      "ĠFrancis": 8529,
      "ĠÃĳ": 8530,
      "matrix": 8531,
      "Ġpathways": 8532,
      "Ġthoughts": 8533,
      "Ġprevalence": 8534,
      "2006": 8535,
      "ĠPut": 8536,
      "ruption": 8537,
      "racellular": 8538,
      "Ġenem": 8539,
      "Ġpil": 8540,
      "template": 8541,
      "Ġhousehold": 8542,
      "Const": 8543,
      "Ġinternet": 8544,
      "rics": 8545,
      "Ġdual": 8546,
      "irus": 8547,
      "Ġsyndrome": 8548,
      "agen": 8549,
      "ko": 8550,
      "fill": 8551,
      "Ġremoval": 8552,
      "Ġpin": 8553,
      "Buffer": 8554,
      "foot": 8555,
      "onym": 8556,
      "idents": 8557,
      "Format": 8558,
      "Ġtrouble": 8559,
      "Ġpointed": 8560,
      "Ġdisplayed": 8561,
      "Ġxml": 8562,
      "Ġsurrounding": 8563,
      "VD": 8564,
      "Ġmutations": 8565,
      "STR": 8566,
      "Ġfruit": 8567,
      "ÂĢ": 8568,
      "Ġabsolutely": 8569,
      "Ġpri": 8570,
      "ĠHy": 8571,
      "Phys": 8572,
      "\\]),": 8573,
      "Ġcoc": 8574,
      "Ġpractical": 8575,
      "]^.": 8576,
      "Ġinstruction": 8577,
      "Ġprohib": 8578,
      "Ġcoron": 8579,
      "***": 8580,
      "Ġcreation": 8581,
      "Ġupdated": 8582,
      "IES": 8583,
      "ĠName": 8584,
      "liament": 8585,
      "Ġapparently": 8586,
      "Ġintegrated": 8587,
      "Ġscal": 8588,
      "Ġinstrument": 8589,
      "Ġcas": 8590,
      "Ġbacteria": 8591,
      "Ġflux": 8592,
      "2019": 8593,
      "vo": 8594,
      "Ġmetast": 8595,
      "orption": 8596,
      "Ġclients": 8597,
      "Ġstages": 8598,
      "ĠMax": 8599,
      "2007": 8600,
      "Ġtro": 8601,
      "Ġprofession": 8602,
      "ĠCup": 8603,
      "ĠExt": 8604,
      "ĠDemocratic": 8605,
      "align": 8606,
      "stack": 8607,
      "MENT": 8608,
      "ĠAcc": 8609,
      "etal": 8610,
      "Ġ1997": 8611,
      "Min": 8612,
      "Ġpreced": 8613,
      "Ġhelping": 8614,
      "scr": 8615,
      "achment": 8616,
      "ĠSpring": 8617,
      "Ġdepression": 8618,
      "ĠRichard": 8619,
      "Ġuncertain": 8620,
      "spring": 8621,
      "Ġspectra": 8622,
      "Ġmedian": 8623,
      "Ġ400": 8624,
      "Ġevening": 8625,
      "Ġcoupling": 8626,
      "Ġemotional": 8627,
      "Ġscreening": 8628,
      "Ġconviction": 8629,
      "phen": 8630,
      "Ġimplied": 8631,
      "Ġsounds": 8632,
      "});": 8633,
      "Ġ1000": 8634,
      "Ġregression": 8635,
      "erves": 8636,
      "Ġtail": 8637,
      "ifts": 8638,
      "Ġadopted": 8639,
      "arge": 8640,
      "roups": 8641,
      "Ġsubmitted": 8642,
      "Ġschedul": 8643,
      "ochond": 8644,
      "Ġkitchen": 8645,
      "ĠAppellant": 8646,
      "sensors": 8647,
      "Ġneighborhood": 8648,
      "txt": 8649,
      "Ġsports": 8650,
      "Ġcommittee": 8651,
      "Ġ58": 8652,
      "athered": 8653,
      "aph": 8654,
      "ĠVirgin": 8655,
      "vider": 8656,
      "Ġrid": 8657,
      "Oper": 8658,
      "III": 8659,
      "ĠWilliams": 8660,
      "Ġtopic": 8661,
      "endants": 8662,
      "Ġingred": 8663,
      "RANT": 8664,
      "Ġsong": 8665,
      "Arg": 8666,
      "Sm": 8667,
      "çĶ": 8668,
      "chain": 8669,
      "Ġ96": 8670,
      "si": 8671,
      "Ġneck": 8672,
      "Ġbeam": 8673,
      "Ġconstructed": 8674,
      "Ġrail": 8675,
      "ĠAv": 8676,
      "Ġargued": 8677,
      "Ġsynthesis": 8678,
      "pert": 8679,
      "pdf": 8680,
      "Ġsurve": 8681,
      "Ġamplit": 8682,
      "Ġ110": 8683,
      "Ġdescribes": 8684,
      "BM": 8685,
      "rb": 8686,
      "Ġpictures": 8687,
      "Ġclassical": 8688,
      "ä½": 8689,
      "Ġdogs": 8690,
      "Ġgast": 8691,
      "Ġmine": 8692,
      "=\"#": 8693,
      "Ġprovisions": 8694,
      "čĊĉĉ": 8695,
      "Ġamino": 8696,
      "Ġmanage": 8697,
      "Ġsolar": 8698,
      "Ġrecover": 8699,
      "250": 8700,
      "riter": 8701,
      "ĠNon": 8702,
      "Ġepisode": 8703,
      "Ġtheoret": 8704,
      "Ġcollabor": 8705,
      "WH": 8706,
      "ĠReview": 8707,
      "Ġcharacteristic": 8708,
      "Ġcounts": 8709,
      "ĠRT": 8710,
      "ARE": 8711,
      "Ġessentially": 8712,
      "Ġsheet": 8713,
      "=\"../../": 8714,
      "LR": 8715,
      "Ġlig": 8716,
      "Ġ\"(": 8717,
      "Ġasc": 8718,
      "Every": 8719,
      "Ġkick": 8720,
      "Factory": 8721,
      "Ġcopyright": 8722,
      "ĠÃĹÂ": 8723,
      "Ġske": 8724,
      "Ġmeat": 8725,
      "Ġ57": 8726,
      "Ġsuc": 8727,
      "ĠVis": 8728,
      "ÐµÐ": 8729,
      "PCR": 8730,
      "mosp": 8731,
      "}{-": 8732,
      "Ġ\\>": 8733,
      "}^\\": 8734,
      "Ġtotally": 8735,
      "Ġtasks": 8736,
      "Ġje": 8737,
      "riers": 8738,
      "Ġexplanation": 8739,
      "-(": 8740,
      "Ġmarkets": 8741,
      "125": 8742,
      "Ġremote": 8743,
      "Command": 8744,
      "center": 8745,
      "Ġcategories": 8746,
      "Ġspatial": 8747,
      "ORE": 8748,
      "Ġadvoc": 8749,
      "sur": 8750,
      "ĠBas": 8751,
      "Ġtaxes": 8752,
      "ĠOS": 8753,
      "Ġfeedback": 8754,
      "isting": 8755,
      "Ġtit": 8756,
      "ĠĠĠĠĠĠĠĠĠĠĠĠĠĠĠĠĠĠĠĠĠĠĠĠĠĠ": 8757,
      "Ġguidelines": 8758,
      "ĠCommon": 8759,
      "ĠSign": 8760,
      "ensus": 8761,
      "setlength": 8762,
      "inet": 8763,
      "ĠRead": 8764,
      "Ġbund": 8765,
      "Ġhypothesis": 8766,
      "enter": 8767,
      "ĠCall": 8768,
      "Ġspeaking": 8769,
      "Ġpit": 8770,
      "Ġmaintained": 8771,
      "ĠDC": 8772,
      "mes": 8773,
      "Builder": 8774,
      "\\\"": 8775,
      "Ġdesire": 8776,
      "ĠInterest": 8777,
      "eper": 8778,
      "Ġapproval": 8779,
      "Ġchapter": 8780,
      "ACE": 8781,
      "ĠÃ©": 8782,
      "anol": 8783,
      "Ġdeclared": 8784,
      "Ġregime": 8785,
      "Ġfashion": 8786,
      "Ġrecording": 8787,
      "atural": 8788,
      "Ġsoil": 8789,
      "Ġ1996": 8790,
      "mi": 8791,
      "ao": 8792,
      "ailability": 8793,
      "Ġconscious": 8794,
      "Ġlisten": 8795,
      "Ġwealth": 8796,
      "Ġultimately": 8797,
      "ysym": 8798,
      "}\\,": 8799,
      "Ġcov": 8800,
      "Ġ85": 8801,
      "Ġfabric": 8802,
      "isters": 8803,
      "ione": 8804,
      "ĠPolice": 8805,
      "ĠCorp": 8806,
      "Ġimmediate": 8807,
      "rh": 8808,
      "={": 8809,
      "È±": 8810,
      "Ġoffering": 8811,
      "Ġlen": 8812,
      "ĠCamp": 8813,
      "Link": 8814,
      "MB": 8815,
      "amsmath": 8816,
      "Ġma": 8817,
      "ussion": 8818,
      "gence": 8819,
      "header": 8820,
      "||": 8821,
      "greek": 8822,
      "Ġ59": 8823,
      "ĠServices": 8824,
      "iatric": 8825,
      "Ġdram": 8826,
      "Ġtells": 8827,
      "ĠChief": 8828,
      "rolled": 8829,
      "Ġiniti": 8830,
      "Open": 8831,
      ".âĢĻ": 8832,
      "bool": 8833,
      "ĠWall": 8834,
      "Ġeigen": 8835,
      "sn": 8836,
      "Ġfellow": 8837,
      "ĠBack": 8838,
      "avascript": 8839,
      "erman": 8840,
      "ĠHaw": 8841,
      "Ġquiet": 8842,
      "Ġreporting": 8843,
      "Ġraw": 8844,
      "Ke": 8845,
      "ĠFire": 8846,
      "ĠWal": 8847,
      "Ġpreparation": 8848,
      "Ġidentical": 8849,
      "Ġtreatments": 8850,
      "ĠMult": 8851,
      "obe": 8852,
      "Options": 8853,
      "Ġtherapeutic": 8854,
      "Ġassign": 8855,
      "Ġkne": 8856,
      "unte": 8857,
      "010": 8858,
      "ssymb": 8859,
      "Ġconsole": 8860,
      "ĠNav": 8861,
      "service": 8862,
      "LD": 8863,
      "å®": 8864,
      "Resource": 8865,
      "Results": 8866,
      "amssymb": 8867,
      "ĠCare": 8868,
      "Ġclassification": 8869,
      "Ġdiffer": 8870,
      "idity": 8871,
      "flu": 8872,
      "Ġking": 8873,
      "bsy": 8874,
      "Ġrealize": 8875,
      "################": 8876,
      "][@": 8877,
      "Ġtransformation": 8878,
      "amsfonts": 8879,
      "Ġneutral": 8880,
      "Ġmodify": 8881,
      "ĠBE": 8882,
      "Ġregulations": 8883,
      "Ġrecognition": 8884,
      "orts": 8885,
      "Ġcoffee": 8886,
      "bel": 8887,
      "eller": 8888,
      "Ġexamine": 8889,
      "Ġmic": 8890,
      "Ġencoding": 8891,
      "ĠVer": 8892,
      "2005": 8893,
      "mann": 8894,
      "Block": 8895,
      "ĠIR": 8896,
      "Init": 8897,
      "Ġserving": 8898,
      "Ġrespective": 8899,
      "rsfs": 8900,
      "Ġcurves": 8901,
      "Ġobviously": 8902,
      "Ġod": 8903,
      "mathrsfs": 8904,
      "ĠSk": 8905,
      "Ġrequested": 8906,
      "amsbsy": 8907,
      "Ġprinciples": 8908,
      "upgreek": 8909,
      "Style": 8910,
      "iser": 8911,
      "idemargin": 8912,
      "Ġcomprehens": 8913,
      "uable": 8914,
      "aded": 8915,
      "Ġspoke": 8916,
      "oddsidemargin": 8917,
      "wasysym": 8918,
      "Ġsurgical": 8919,
      "Ġincidence": 8920,
      "Ġpurs": 8921,
      "âĢĺ": 8922,
      "(*": 8923,
      "Ġ$(\\": 8924,
      "ductor": 8925,
      "Ġdiscovery": 8926,
      "Ġfinds": 8927,
      "Component": 8928,
      "Length": 8929,
      "Ġbars": 8930,
      "Ġsituations": 8931,
      "ttp": 8932,
      "Because": 8933,
      "close": 8934,
      "Listener": 8935,
      "graph": 8936,
      "Ġillness": 8937,
      "Ġ\"\"\"": 8938,
      "ĠJose": 8939,
      "qquad": 8940,
      "ĠHE": 8941,
      "iana": 8942,
      "Ġtumors": 8943,
      "Ġhal": 8944,
      "ĠHen": 8945,
      "Ġcarcin": 8946,
      "vector": 8947,
      "Current": 8948,
      "DM": 8949,
      "Ġtaste": 8950,
      "Find": 8951,
      "Ident": 8952,
      "^,": 8953,
      "LECT": 8954,
      "Ġprompt": 8955,
      "odium": 8956,
      "dx": 8957,
      "Attribute": 8958,
      "ĠCheck": 8959,
      "Update": 8960,
      "ĠIsland": 8961,
      "åĲ": 8962,
      "Ġplain": 8963,
      "&&": 8964,
      "Ġworst": 8965,
      "asive": 8966,
      "ĠLi": 8967,
      "SO": 8968,
      "Ġposts": 8969,
      "Ġcontem": 8970,
      "ĠDO": 8971,
      "ĠSecretary": 8972,
      "tx": 8973,
      "ĠAdditionally": 8974,
      "cb": 8975,
      "Ġlies": 8976,
      "Ġrotation": 8977,
      "iner": 8978,
      "Ã£o": 8979,
      "Ġcontrovers": 8980,
      "Ġshooting": 8981,
      "ffered": 8982,
      ":(": 8983,
      "Ġcrucial": 8984,
      "otypes": 8985,
      "ĠMicrosoft": 8986,
      "omatic": 8987,
      "Ġaggreg": 8988,
      "Ġyouth": 8989,
      "ĠÎ±": 8990,
      "empty": 8991,
      "Ġclimate": 8992,
      "Ġcompliance": 8993,
      "Ġsick": 8994,
      "terday": 8995,
      "bered": 8996,
      "ĠCath": 8997,
      "Ġbought": 8998,
      "Eng": 8999,
      "Ġhelpful": 9000,
      "ĠText": 9001,
      "Ġalloc": 9002,
      "Ġment": 9003,
      "Ġven": 9004,
      "auge": 9005,
      "Ġcognitive": 9006,
      "ĠHome": 9007,
      "thlet": 9008,
      "Ġassets": 9009,
      "2001": 9010,
      "Ġpulled": 9011,
      "teen": 9012,
      "Ġnurs": 9013,
      "second": 9014,
      "Ġloan": 9015,
      "äº": 9016,
      "icide": 9017,
      "attice": 9018,
      "ĠDemocrats": 9019,
      "Ġok": 9020,
      "Dev": 9021,
      "neq": 9022,
      "ĠDevelopment": 9023,
      "ĠLib": 9024,
      "Ġsomewhat": 9025,
      "Ġtransaction": 9026,
      "Ġrequests": 9027,
      "ĠBit": 9028,
      "Work": 9029,
      "Ġthr": 9030,
      "ĠApple": 9031,
      "Ġplanet": 9032,
      "Ġarrested": 9033,
      "Ġalign": 9034,
      "mode": 9035,
      "cribed": 9036,
      "Ġcontents": 9037,
      "xiety": 9038,
      ">&": 9039,
      "Ġsustain": 9040,
      "Spec": 9041,
      "Ġenforcement": 9042,
      "FE": 9043,
      "Ġmask": 9044,
      "Ġhurt": 9045,
      "ĠLabor": 9046,
      "nergy": 9047,
      "256": 9048,
      "Ġruling": 9049,
      "Supplementary": 9050,
      "Ġdrawn": 9051,
      "Token": 9052,
      "Ġteaching": 9053,
      "Ġ66": 9054,
      "ĠSociety": 9055,
      "Ġhero": 9056,
      "Ġpreferred": 9057,
      "Ġglucose": 9058,
      "spe": 9059,
      "Ġ],": 9060,
      "card": 9061,
      "Gener": 9062,
      "åħ": 9063,
      "Ġpossession": 9064,
      "Ġmail": 9065,
      "prot": 9066,
      "utory": 9067,
      "Ġhate": 9068,
      "ĠTim": 9069,
      "udd": 9070,
      "rium": 9071,
      "DI": 9072,
      "ĠMur": 9073,
      "ĠPo": 9074,
      "Ġinfected": 9075,
      "Ġ\\*": 9076,
      "Ġhidden": 9077,
      "ben": 9078,
      "ĠPeter": 9079,
      "Ġpresum": 9080,
      "Ġtube": 9081,
      "Ġfurn": 9082,
      "Ġmanip": 9083,
      "Ġdeaths": 9084,
      "<?": 9085,
      "Ġbiom": 9086,
      "Ġdriven": 9087,
      "mult": 9088,
      "ishment": 9089,
      "allow": 9090,
      "ĠFil": 9091,
      "Met": 9092,
      "Ġlogic": 9093,
      "uke": 9094,
      "\\^": 9095,
      "estion": 9096,
      "Ġenzyme": 9097,
      "Ġfighting": 9098,
      "Ġrend": 9099,
      "ĠZe": 9100,
      "ĠDirector": 9101,
      "Ġapplying": 9102,
      "Ġpicking": 9103,
      "ĠAdminist": 9104,
      "Ġnormally": 9105,
      "ĠFund": 9106,
      "Ġintelligence": 9107,
      "%),": 9108,
      "Ġrect": 9109,
      "Ġvoters": 9110,
      "bottom": 9111,
      "Ġnm": 9112,
      "Ġcentre": 9113,
      "ĠPower": 9114,
      "azine": 9115,
      "push": 9116,
      "click": 9117,
      "GET": 9118,
      "Ġpowers": 9119,
      "everal": 9120,
      "Ġnoticed": 9121,
      "}^{(": 9122,
      "Ġweapons": 9123,
      "ĠThose": 9124,
      "ariable": 9125,
      "ĠJournal": 9126,
      "buffer": 9127,
      "ĠRoad": 9128,
      ")))": 9129,
      "Ġcarrying": 9130,
      "Ġrealized": 9131,
      "Ġcounty": 9132,
      "attr": 9133,
      "Ġdivision": 9134,
      "update": 9135,
      "rolog": 9136,
      "icing": 9137,
      "har": 9138,
      "Ġpermission": 9139,
      "Ġgrade": 9140,
      "Ġroles": 9141,
      "Ġassumption": 9142,
      "Tex": 9143,
      "bling": 9144,
      "Ġmechanical": 9145,
      "Ġvertical": 9146,
      "Ġspectral": 9147,
      "Ġcontroller": 9148,
      "Ġincred": 9149,
      "Child": 9150,
      "Ġgrid": 9151,
      "Ġproliferation": 9152,
      "quare": 9153,
      "Ġpor": 9154,
      "ĠCorpor": 9155,
      "Ġ&\\": 9156,
      "ĠIg": 9157,
      "Ġfiber": 9158,
      "Who": 9159,
      "akistan": 9160,
      "Ġreads": 9161,
      "WS": 9162,
      "}+\\": 9163,
      "Ñı": 9164,
      "han": 9165,
      "Ġourselves": 9166,
      "None": 9167,
      "inition": 9168,
      "esides": 9169,
      "Ġcultural": 9170,
      "Ġperipher": 9171,
      "NOT": 9172,
      "Row": 9173,
      "isor": 9174,
      "filter": 9175,
      "Ġoccasion": 9176,
      "Ġregistered": 9177,
      "molecules": 9178,
      "ATH": 9179,
      "Ġacids": 9180,
      "scill": 9181,
      "Ġsubstantially": 9182,
      "People": 9183,
      "response": 9184,
      "Ġattempts": 9185,
      "Ġinfections": 9186,
      "Ġ62": 9187,
      "ĠLee": 9188,
      "ĠTem": 9189,
      "âĢĭ": 9190,
      "oids": 9191,
      "Ġtrigger": 9192,
      "sen": 9193,
      "ĠReturn": 9194,
      "Ġhappening": 9195,
      "ĠPT": 9196,
      "Tab": 9197,
      "DD": 9198,
      "Ġgro": 9199,
      "emia": 9200,
      "Ġtip": 9201,
      "outs": 9202,
      "Mem": 9203,
      "GT": 9204,
      "ja": 9205,
      "Ġorth": 9206,
      "ermine": 9207,
      "Ġaccused": 9208,
      "ĠSpe": 9209,
      "ĠEducation": 9210,
      "ĠMel": 9211,
      "ĠModel": 9212,
      "ĠValue": 9213,
      "Ġmillions": 9214,
      "Ġexcited": 9215,
      "ching": 9216,
      "power": 9217,
      "Ġimagine": 9218,
      "Ġseparated": 9219,
      "ĠHamilton": 9220,
      "NC": 9221,
      "Ġcalc": 9222,
      "direct": 9223,
      "ĠNov": 9224,
      "2004": 9225,
      "Ġdisag": 9226,
      "Ġatmosp": 9227,
      "fortunately": 9228,
      "Ġexperts": 9229,
      "ULT": 9230,
      "Ġconversion": 9231,
      "Ġdiameter": 9232,
      "Ġpatent": 9233,
      "Ġpaying": 9234,
      "]\\": 9235,
      "Ġdropped": 9236,
      "OST": 9237,
      "Ġpermit": 9238,
      "Ġà¤": 9239,
      "Ġembod": 9240,
      "Ġuniversity": 9241,
      "Ġcorrelated": 9242,
      "Pa": 9243,
      "Ġmedicine": 9244,
      "types": 9245,
      "kt": 9246,
      "obby": 9247,
      "Ġweather": 9248,
      "Ġfo": 9249,
      "Â¼": 9250,
      "Ġblow": 9251,
      "inical": 9252,
      "Ġchart": 9253,
      "Ġopposition": 9254,
      "Ġconsumer": 9255,
      "Ġplanned": 9256,
      "Ġmetric": 9257,
      "ĠDonald": 9258,
      "ĠIr": 9259,
      "Ġlegislation": 9260,
      "Ġradius": 9261,
      "ĠMs": 9262,
      "ĠMount": 9263,
      "ĠWARRANT": 9264,
      "ĠDate": 9265,
      "Ġ63": 9266,
      "ĠBet": 9267,
      "hr": 9268,
      "Equal": 9269,
      "Ġsuperior": 9270,
      "Mult": 9271,
      "Width": 9272,
      "rif": 9273,
      "ĠThanks": 9274,
      "ĠKorea": 9275,
      "Ġboolean": 9276,
      "Ġsister": 9277,
      "ĠAttorney": 9278,
      "ĠNever": 9279,
      "Ġinstitutions": 9280,
      "HC": 9281,
      "Dep": 9282,
      "Configuration": 9283,
      "Ġvide": 9284,
      "Ġmir": 9285,
      "Direct": 9286,
      "IGHT": 9287,
      "blog": 9288,
      "Ġtrac": 9289,
      "Ġ>=": 9290,
      "VAL": 9291,
      "ÑĮ": 9292,
      "element": 9293,
      "some": 9294,
      "Ġpurchased": 9295,
      "Ġnic": 9296,
      "Ġsizes": 9297,
      "Ġknowing": 9298,
      "ĠWilliam": 9299,
      "Ġfle": 9300,
      "Ġhall": 9301,
      "Ġsimulation": 9302,
      "Ġconstitutional": 9303,
      "Ġreactions": 9304,
      "Ġfee": 9305,
      "AK": 9306,
      "Ġcars": 9307,
      "Ġfeels": 9308,
      "Ġdocumentation": 9309,
      "Ġcrystal": 9310,
      "Ġfant": 9311,
      "notation": 9312,
      "kes": 9313,
      "tml": 9314,
      "Str": 9315,
      "ĠWho": 9316,
      "Ġshel": 9317,
      "Ġconc": 9318,
      "Ġradi": 9319,
      "---------": 9320,
      "essions": 9321,
      "./": 9322,
      "Ġintroduce": 9323,
      "oston": 9324,
      "Ġreliable": 9325,
      "Ġdegrad": 9326,
      "ynomial": 9327,
      "Ġincreasingly": 9328,
      "ĠDev": 9329,
      "About": 9330,
      "Ġsharing": 9331,
      "Ġpromise": 9332,
      "Ġrein": 9333,
      "Ġalpha": 9334,
      "ventions": 9335,
      "Ġ68": 9336,
      "è¿": 9337,
      "Ġviral": 9338,
      "Ġowned": 9339,
      "BB": 9340,
      "Ġokay": 9341,
      "mathsf": 9342,
      "ĠArch": 9343,
      "Ġtransferred": 9344,
      "unched": 9345,
      "erred": 9346,
      "ĠWood": 9347,
      "Ġkinds": 9348,
      "Ġreligion": 9349,
      "Ġdomestic": 9350,
      "haust": 9351,
      "uting": 9352,
      "ĠMartin": 9353,
      "ĠmM": 9354,
      "endar": 9355,
      "ĠAff": 9356,
      "river": 9357,
      "Ġcomplicated": 9358,
      "gi": 9359,
      "Ġentity": 9360,
      "Ġcab": 9361,
      "Ġsubstance": 9362,
      "there": 9363,
      "Ġanswers": 9364,
      "ĠGNU": 9365,
      "=(": 9366,
      "Ġvictims": 9367,
      "{-": 9368,
      "Ġrapidly": 9369,
      "Ġrecognize": 9370,
      "zy": 9371,
      "Ġforming": 9372,
      "Ġoriginally": 9373,
      "orne": 9374,
      "ĠDivision": 9375,
      "aks": 9376,
      "Thank": 9377,
      "ester": 9378,
      "Also": 9379,
      ")*(-": 9380,
      "Ġsetup": 9381,
      "Ġwine": 9382,
      "}}^{": 9383,
      "Ġradical": 9384,
      "Ac": 9385,
      "Ġslowly": 9386,
      "approx": 9387,
      "Hey": 9388,
      "Ġbrowser": 9389,
      "Ġ--------------------------------": 9390,
      "Ġcorporate": 9391,
      "files": 9392,
      "John": 9393,
      "rible": 9394,
      "Ġmes": 9395,
      "Ġextensive": 9396,
      "255": 9397,
      "Ġacquired": 9398,
      "Ġanyway": 9399,
[...]
